#version: 0.2
Ġ t
Ġ a
i n
h e
r e
o n
a t
Ġt he
e r
Ġ s
Ġ o
e n
Ġ c
e d
a l
i on
n d
e s
Ġ in
i t
Ġ w
Ġ p
Ġo f
o r
Ġ f
i s
a n
i c
Ġ m
Ġa nd
Ġ d
r o
Ġ b
a r
in g
a s
c t
Ġ (
Ġ e
Ġ re
en t
at ion
l e
Ġt o
e l
Ġ T
Ġt h
i m
i g
u s
Ġ l
u l
e t
u r
i v
Ġ h
o m
Ġ n
l y
u t
c e
s t
o l
Ġ is
i l
Ġc on
i d
o w
Ġf or
Ġs t
o t
Ġ S
Ġ g
i f
e re
it h
Ġ A
Ġ v
ĠT he
o d
o s
Ġ 1
Ġw ith
r a
u re
Ġ 2
) .
Ġa l
e ct
Ġp ro
Ġ C
c h
Ġth at
t er
Ġa n
Ġa s
â Ģ
Ġe x
Ġb e
it y
e m
Ġ on
a b
Ġa re
a m
u m
Ġ I
at e
v er
u n
Ġb y
re s
at ed
Ġ F
he r
Ġre s
an t
i r
ro m
Ġd e
q u
Ġ P
i es
u d
g e
Ġ M
Ġw as
is t
i b
Ġs u
ic al
Ġa t
Ġc om
es t
o re
Ġf rom
iv e
0 0
Ġ N
a in
p p
o c
or t
s e
u nd
Ġw ere
Ġ r
a y
p er
Ġs e
Ġ E
i al
p t
el l
m ent
Ġ us
Ġs h
v e
p e
ation s
ion s
a ct
f f
) ,
Ġ H
a d
Ġ R
Ġc h
Ġ [
Ġ W
Ġm od
o g
Ġcom p
Ġ D
Ġw h
ul t
c es
ig h
d u
i z
p l
Ġo r
Ġc o
er s
a c
Ġ B
Ġin c
a nd
Ġp re
ĠI n
t h
Ġcon t
âĢ ĵ
at er
Ġ en
re as
Ġw e
Ġ G
o p
if ic
Ġ 3
r an
ic h
Ġc l
Ġ im
i p
ab le
Ġth is
Ġmod el
ar i
in e
if f
Ġ L
el y
ct ion
Ġp er
Ġm e
n t
a g
o us
ig n
â Ī
or m
Ġd iff
Ġn e
Ġ le
Ġn ot
Ġo b
Ġ O
res s
0 1
F ig
Ġwh ich
Ġe t
u g
en ce
Ġa c
Ġin t
Ġre g
Ġsh ow
Ġp ar
et w
v el
t her
al l
a ve
as t
en s
Ġa d
Ġ it
Ġ 0
Ġd at
on g
Ġ he
Ġc an
Ġg en
Ġin d
Ġs o
er v
ĠT h
al y
Ġc ell
an ce
Ġst ud
a k
Ġdiff ere
en d
r ib
ran s
it ion
l ow
ent s
e en
Ġw he
etw een
in d
Ġ 4
Ġb etween
a ge
Ġp l
s o
at ure
ff ect
Ġv ari
Ġ 5
Ġim p
e ar
pe c
r i
Ġa b
al u
r u
Ġe v
Ġs im
es s
igh t
Ġres ult
ug h
as e
ĠF ig
Ġm o
Ġa pp
a ch
Ġinc reas
Ġdat a
Ġs p
Ġ k
Ġh ave
Ġs ign
Ġt rans
p h
Ġch an
âĪ Ĵ
t e
Ġas s
Ġ ra
] .
at es
Ġth an
. ,
s erv
re d
Ġin ter
il ity
Ġo ver
il l
l u
Ġres p
ut ion
f orm
c ed
at ive
Ġw ater
Ġ un
ar y
ar d
or s
Ġex p
Ġre l
Ġd is
u al
Ġal so
Ġt im
y st
ol og
Ġm et
Ġan aly
a ce
a p
Ġ2 00
Ġs c
ĠTh is
Ġ2 01
c ent
Ġa ct
Ġt em
s is
Ġ1 9
Ġob serv
as s
ces s
Ġus ed
v i
ul d
Ġ y
t ain
u p
Ġv alu
Ġ U
id e
on d
o und
Ġsu b
Ġg ro
Ġpar t
Ġt re
le ct
Ġde c
Ġs am
Ġe ffect
Ġcon s
Ġs pec
Ġthe se
Ġp h
Ġre p
Ġd et
c ul
ter n
Ġc or
Ġs ur
Ġl ow
i ed
b er
Ġus ing
w o
Ġd ist
ĠW e
a us
Ġh igh
yst em
ro p
ur ing
Ġh as
ic e
er m
l o
i a
i x
Ġ ro
Ġp o
i re
per ature
Ġ K
at ing
Ġcell s
iv ely
Ġdiffere nt
us t
Ġm ore
Ġ und
ð Ŀ
Ġstud y
N A
it e
Ġtem perature
Ġtim e
ot h
Ġp at
Ġt wo
Ġl ar
res ent
Ġo ther
Ġsign ific
ic t
ab ility
Ġa m
om e
Ġ Î
o ut
e p
Ġal l
ru ct
re e
u b
Ġp os
Ġresult s
Ġ 6
on s
Â ł
ect ion
Ġb as
Ġac c
Ġb ut
Ġbe en
e ver
Ġex t
Ġund er
os e
r y
Ġsignific ant
Ġle vel
a il
Ġe ach
Ġb i
i ent
Ġin f
or d
im ate
Ġ J
Ġpro du
f ace
Ġd uring
Ġ qu
Ġ1 0
Ġd es
al ly
en c
Ġme as
u e
ul ation
c l
ro ugh
g es
Ġc ol
Ġl oc
or y
iz ed
Ġre c
Ġh y
Ġs ystem
i le
Ġ =
Ġad d
Ġmeas ure
in ed
Ġb oth
Ġind ic
er g
ro l
Ġst r
o ur
Ġact iv
Ġ âĢ
Ġthe ir
Ġmet h
Ġ est
Ġm ay
te in
Ġm an
e x
ment s
or k
c ip
ic s
ow ever
Ġgen er
Ġe m
it ation
g g
Ġex per
os p
ac k
Ġ V
Ġn um
un t
Ġfor m
âĢ Ļ
l es
ro s
e w
Ġ ,
is s
a v
Ġcon d
Ġme an
Ġsu pp
c c
r ic
Ġsur face
Ġ 7
Ġanaly sis
Ġf un
ðĿ ĳ
on e
aus e
Ġint o
Ġobserv ed
ĠFig ure
ress ion
r ation
Ġm on
Ġn o
Ġre du
1 0
Ġpro tein
ect ed
Ġm a
f ore
re l
Ġc al
Ġo ut
i k
Ġpro v
i od
ff ic
Ġthe re
Ġsu ch
he d
y n
in t
a re
Ġvalu es
Ġinc l
o uld
Ġh ig
p le
Ġon ly
Ġmeth od
Ġin v
il ar
Â °
Ġreg ion
ere d
act er
iz ation
2 0
Ġpro cess
i an
ical ly
oc i
id ent
n ce
Ġpart ic
it ions
f ter
Ġcon cent
Ġshow n
t al
Ġit s
cip itation
a red
ĠF or
e g
Ġt ra
Ġf ore
Ġincl ud
st r
it ud
vel op
Ġa g
Ġ 8
Ġper iod
ent ial
ul ar
Ġpre d
Ġ2 0
am et
Ġf act
ĠA l
Ġexper im
Ġon e
it ies
ow n
if ied
Ġre m
Ġmo st
Ġf ol
ĠA s
Ġbe c
x im
he re
Ġspec ies
rib ut
Ġst ruct
Ġe qu
Ġs m
pt ion
Ġpre cipitation
Ġre f
he n
enc y
el d
Ġf ound
Ġo ur
ay s
Ġf lu
Ġso il
ol ution
Ġsu gg
Ġsugg est
em b
c le
Ġv er
Ġwhe n
Ġc y
Ġchan ges
iz e
Ġt y
Ġde velop
Ġy ear
ation al
ib le
Ġm in
ĠT o
ĠH owever
m er
Ġa ver
Ġmodel s
i eld
ur al
he m
olog ical
v ed
Ġcomp le
Ġ 9
al e
Ġth rough
Ġde p
Ġper form
Ġo cc
ant s
Ġapp ro
Ġcont rol
Ġw ell
as on
Ġresp ect
Ġch ar
Ġa r
Ġcl imate
Ġ19 9
y s
y l
j ect
rib ution
Ġare a
o ugh
Ġnum ber
Ġsim ilar
S T
Ġw ind
Ġp resent
Ġchan ge
Ġstud ies
it ive
is m
ar t
ch an
Ġfun ction
Ġt est
Ġincreas e
ur ther
Ġcond itions
1 9
Ġr an
Ġpred ict
ir st
Ġimp ort
Ġm ain
ce pt
Ġfol low
erg y
Ġhig her
Ġp r
ar m
og en
Ġd om
Ġc ar
Ġwhe re
Ġ ident
ind ing
Ġcon st
w ard
Ġgro w
vi ous
Ġsm all
ol d
o st
Ġus e
em ent
Ġ up
Ġdec reas
Ġex am
Ġd o
Ġcal cul
ort ed
Ġan t
r al
Ġlar ge
Ġdet erm
Ġth ree
Ġc ur
Ġcons id
Ġstruct ure
o unt
Ġocc ur
ĠC h
ir on
s c
Ġcor rel
al s
o v
Ġass oci
Ġsim ul
Ġco uld
it ed
Ġde f
ear ch
Ġwith in
Ġpar amet
ra m
Ġadd ition
Ġ z
Ġra in
Ġto tal
ĠThe se
Ġf low
Ġa fter
c er
Ġr at
5 0
Ġhy d
as es
g en
h ib
Ġcon f
Ġp ot
m un
Ġd ue
m osp
Ġl ong
y m
Ġd ire
ĠI t
Ġpat tern
d i
Ġbas ed
e c
Ġfore st
Ġpro p
he s
Ġsam pl
Ġ Ċ
ros s
t o
Ġg re
Ġp e
ur b
Ġdes c
1 2
o od
Ġl and
Ġsam e
iv ers
Ġan om
Ġstr ong
Ġen ergy
on se
Ġm ut
Fig ure
iv en
Ġest im
Ġh um
v iron
Ġs et
olog y
ra in
Ġrespect ively
Ġcomp ared
Ġinter act
tain ed
g et
Ġf e
Ġvalu e
Ġincreas ed
it s
l ic
Ġm ic
in al
itud e
ens ity
Ġe c
Ġc ent
Ġbec ause
Ġf irst
Ġchar acter
ut h
Ġn on
Ġpro b
Ġs it
at ic
o ver
Ġlow er
r it
Ġw ill
n ing
ĠâĢ ľ
Ġp ol
ra ct
o x
ort h
âĢ Ŀ
g an
Ġs um
Ġs ome
Ġa v
Ġeffect s
Ġex pl
ed i
Ġaver age
oc k
e ch
re qu
Ġr ate
Ġlevel s
Ġd em
ar k
Ġl ine
iv er
form ation
n ces
ĠS t
1 1
ce an
ro und
Ġexp ression
Ġpre vious
Ġcons ist
r id
] ,
Ġpot ential
Ġre qu
her ic
Ġd i
ak e
Ġlar g
iv id
Ġm ult
ĠA t
Ġimport ant
Ġs ens
Ġdist ribution
Ġ Â
an g
Ġs ol
Ġresp onse
res p
Ġat mosp
Ġactiv ity
Ġw ork
ial ly
viron ment
in es
o ud
Ġdesc rib
iv ity
Ġthe y
Ġimp act
as ed
al ity
Ġa ir
c ing
f all
os ed
lo b
Ġme chan
Ġassoci ated
Ġdis c
is e
Ġse ason
Ġcl oud
1 5
Ġshow s
ĠThe re
ĠT able
Ġpo int
o ve
ĠC O
i qu
Ġinf lu
re nt
yn am
Ġwh ile
Ġreg ions
Ġprov id
ific ation
ere st
t y
Ġse qu
Ġg ra
Ġse c
1 3
Ġpos s
th ough
Ġp res
Ġthe n
Ġsp at
ech n
en g
l and
Ġma xim
Ġ er
end ent
Ġs er
Ġle ad
i o
d er
Ġl ik
Ġ Y
Ġw ould
Ġrep resent
Ġl im
Ġtre nd
at or
n ual
p ar
t ed
h ip
is h
Ġne g
Ġth ose
Ġcomple x
ar ly
Ġm ice
r on
os s
Ġf requ
lect ed
resp ond
Ġgrow th
Ġst and
Ġt rop
Ġgro up
ffic ient
Ġ j
2 00
Ġp op
ag es
Ġa ffect
a i
in ation
Ġcomp ar
Ġt erm
Ġf ield
e f
Ġe lect
Ġanom al
Ġd r
Ġdire ct
Ġat t
ĠA pp
Ġty p
Ġcor respond
Ġk n
2 01
m e
p ut
Ġso ur
Ġexperim ent
Ġare as
Ġshow ed
Ġv ol
Ġin s
her n
Ġ Z
1 4
in k
u ch
Ġob tained
a pt
end ix
Ġdiffere nces
if y
Ġvari ability
w ater
2 5
Ã Ĺ
Ġpat h
Ġh ad
1 6
Ġloc al
Ġav ail
Ġen d
Ġab out
Ġyear s
Ġl ay
o b
Ġra di
Ġinv est
at ely
iv ed
Ġran ge
Ġflu x
Ġrain fall
S I
Ġp a
du ced
Ġen vironment
1 8
il d
Ġsignificant ly
Ġf urther
ow er
Ġc ir
Ġst at
Ġst re
ain s
Ġe le
in s
f t
n ess
Ġhum an
Ġconcent ration
Ġo pt
Ġtre at
Ġl ess
Ġconcent r
ĠS ST
ĠA n
2 1
Ġab ove
Ġin it
ĠU n
Ġcom b
c k
ivid ual
p or
Ġcur rent
c ri
Ġc le
Ġg lob
C M
i e
ress ed
m on
Ġmic ro
h a
at ively
Ġs ize
3 0
Ġw arm
Ġem iss
ivers ity
ag n
ĠR es
Ġs ite
Ġm at
Ġspat ial
b on
et ic
Ġmechan ism
ĠApp endix
Ġc ap
Ġc ase
C A
Ġsit es
Ġind ividual
du ct
Ġsign al
re g
ep endent
Ġimp ro
n e
Ġev ents
Ġcomp on
Ġmaxim um
Ġsh ould
Ġl o
in a
Ġpos itive
1 7
Ġ u
Ġpr im
Ġl at
Ġtrans p
en ces
Ġdescrib ed
ing le
2 2
Ġperform ed
Ġor gan
Ġdevelop ment
u cle
Ġhe at
ur n
c i
Ġcont ribut
Ġ .
ion al
t ical
Ġanaly z
o le
Ġrel ative
Ġinclud ing
Ġ3 0
Ġab s
t ic
Ġgen es
Ġd ynam
r ing
Ġobserv ations
ord ing
Ġcl ass
Ġmon th
Ġcalcul ated
Ġsec ond
Ġrel ations
Ġro le
at ory
Ġb l
Ġinvest ig
ra ph
Ġspec ific
Ġqu ant
f ul
Ġm ix
t s
l ed
u es
Ġt echn
Ġexperim ents
Ġfact ors
Ġin st
in ce
Ġ1 5
Ġ1 2
t ing
Ġmeasure d
r ast
in ter
Ġver y
Ġ Q
Ġass ess
Ġconcentr ations
ab les
Ġs ingle
Ġgen e
Ġprodu ct
Ġparamet ers
Ġconsist ent
Ġin formation
Ġ ent
âĢ ²
Ġrelations hip
Ġsampl es
ar get
Ġres earch
is hed
Ġdiffere nce
Ġglob al
f er
Ġm emb
ad e
Ġb u
os ition
A T
S O
os ph
Ġb el
Ġdem on
Ġre t
Ġp ower
m a
l ight
4 0
Ġd own
h an
Ġst ate
Ġneg ative
Ġcorrel ation
pl ic
Ġin hib
Ġ )
Ġprotein s
ĠD NA
Ġac ross
Ġev alu
ffic i
ĠS e
Ġr un
Ġanomal ies
ĠP ro
Ġc aus
00 0
Ġco ver
Ġmo le
âĢ Ķ
l ine
Ġcon v
Ġ i
R NA
ut e
he l
Ġpartic ular
Ġpl ant
Ġresp ons
Ġer r
Ġdemon str
Ġan nual
eng th
Ġprodu ction
Ġsupp ort
id ence
ate g
ĠÎ ¼
Ġcont ain
Ġrep orted
an e
Ġph ase
Ġfollow ing
om p
ress ure
Ġavail able
Ġre act
Ġcar bon
Ġse ver
Ġstat ist
Ġf our
Ġ X
im e
s es
2 3
Ġne ed
on al
Ġdep end
Ġatmosp heric
Ġf ra
Ġsp ect
Ġ if
Ġhyd ro
Ġo cean
Ġprocess es
etw ork
Ġan y
Ġa er
Ġ âĢĵ
Ġ ice
Ġt arget
Ġk m
orm al
Ġconsid er
el s
Ġman y
r m
Ġ Â°
ter m
lo od
Ġrel ated
Ġpro m
i er
Ġexam ple
C R
A R
Ġrequ i
Ġt r
os ol
Ġpro per
Ġm ass
Ġredu ced
id es
Ġg iven
Ġincreas ing
Ġal low
Ġac id
s ion
Ġsum mer
ĠI nd
Ġappro ach
Ġd ensity
Ġam ount
Ġl oss
Ġne w
Ġsimul ations
C s
ĠTh us
j or
hem ical
ul ated
Ġcont in
Ġde g
Ġtreat ment
ot s
Î ±
Ġlik ely
Ġgro und
Ġp ressure
Ġb ound
um e
Ġsystem s
Ġstand ard
ĠÂ ±
â ī
t ies
t en
Ġlarg er
st it
g ed
Ġre le
Ġres id
Ġcont rast
Ġmeasure ments
Ġconsid ered
Ġc rit
Ġo per
Ġb inding
om et
Ġpro f
T able
Ġ <
ut ure
Ġw inter
Ġam ong
Ġlay er
Ġma jor
Ġd ays
Ġunder st
og raph
Ġco e
at ural
ac ific
Ġcharacter ist
Ġn etwork
Ġmo ist
Ġpe ak
Ġse a
cul ar
Ġpro t
Ġposs ible
ot e
y nt
c on
ĠThere fore
se qu
ĠS I
Ġph ys
Ġfrequ ency
Ġdes ign
A M
n ow
o res
Ġ5 0
l ied
Ġl it
Ġtransp ort
Ġ ]
Ġser ies
ab ly
Ġg e
2 4
op h
Ġev en
Ġm ot
ous e
Ġcom mun
Ġa uth
u pl
ic k
Ġsever al
Ġ âĪĴ
Ġd er
ater ial
Ġincreas es
Ġ19 8
Ġal ong
it her
Ġmin im
om ic
al es
Ġd ay
ran e
ĠP acific
us ion
Ġrat io
ĠN ational
Ġto p
Ġinv ol
Ġne ar
Ġor der
w ay
Ġth us
Ġident ified
i um
Ġmethod s
pt h
Ġm id
at a
Ġpattern s
Ġn ucle
Ġad v
Ġre ve
Ġre cent
Ġman ag
C C
Ġd id
Ġm m
Ġhe l
Ġpo ly
Ġprov ide
l ished
u ro
c o
Î ²
Ġm uch
Ġo x
Ġdom ain
ha vi
Ġwhe ther
Ġopt im
n er
R A
Ġpop ulation
Ġsim ulation
Ġinflu ence
Ġr ates
it or
Ġsc en
Ġvari ables
Ġfact or
Ġ ÃĹ
Ġf il
Ġcon duct
d e
Ġ1 00
2 7
as et
I P
Ġwe ak
ult ure
Ġint erest
o k
Ġdeterm ined
Ġtim es
Ġwhe reas
ĠC D
is on
h old
b ased
e y
it ro
2 9
Ġbe havi
Ġpres ence
Ġp hen
Ġthe rm
Ġf uture
er t
Ġfe ature
Ġh ow
ĠCh ina
ing s
Ġm agn
Ġg rid
M S
Ġs at
m s
Ġ ed
Ġen s
Ġhe ight
ul l
ĠAl though
Ġde pth
Ġf inding
Ġacc ur
2 6
le t
ĠAl l
Ġty pe
o id
I I
ĠO ur
om es
Ġsh ort
Ġind ex
ro w
Ġe as
in ing
Ġ1 1
Ġbe fore
a x
Ġaer osol
ĠF urther
Ġph osph
c ell
Ġform ation
2 8
Ġtrans cri
Ġgre ater
Ġcon ver
ot y
es tern
Ġext re
Ġf l
Ġmoist ure
le ment
he sis
Ġv is
Ġv ir
Ġ1 3
S A
m edi
Ġvari ation
Ġdecreas e
Ġscen ari
Ġdo es
Ġb ack
Ġrec ord
Ġc at
c ast
Ġint eg
) ;
Ġass um
Ġ1 8
urb an
ch ar
Ġsam ple
ip le
ĠRes earch
Ġsc ale
ĠN orth
Ġinit ial
Ġacc ount
Ġapp lied
Ġapp lic
Ġqu ality
Ġpa per
pp er
Ġanalyz ed
le ction
g ing
Ġst ress
E R
cer tain
Ġcir cul
Ġhe re
Ġl ight
Ġs pe
ur ation
Ġp ub
Ġrel atively
Ġtyp es
Ġd ry
Ġver tical
Ġpol l
Ġtrop ical
ex t
Ġdom in
Ġgener al
Ġdet ail
ro ph
Ġhy p
Ġw ave
ĠN O
Ġemiss ions
Ġperform ance
Ġco st
ere nce
n g
0 5
Ġ1 6
Ġdisc us
Ġn ormal
Ġestim ated
Ġp ur
Ġ1 4
Ġn atural
Ġco unt
p r
Ġa ut
Ġsupp orted
Ġredu ction
Ġparamet er
vi ew
Ġres olution
Ġor ig
Ġenvironment al
eg et
et ter
3 5
an k
Ġm edi
Ġm ark
ĠA r
Ġcy cle
Ġe ither
Ġcy cl
E S
v es
Ġexp ected
a f
Ġpresent ed
Ġcl im
Ġunderst and
Ġcorrespond ing
p s
iv es
Ġf oc
Ġe l
Ġwarm ing
Ġsour ce
Ġpro g
Ġph ot
is ion
v al
et h
Ġauth ors
Ġh ist
Ġse par
Ġprevious ly
Ġst ep
Ġsh if
Ġm M
Ġun certain
Ġr is
ĠR NA
Ġcont ent
Ġreve al
Ġ2 5
us ter
Âł Ċ
Ġal g
ĠA d
Ġv al
Ġkn own
Ġdat aset
o ff
al th
se e
Ġne ur
Ġtre e
ra d
at h
A C
os ystem
Ġwith out
ct ions
Ġdist ribut
Ġv ers
y t
Ġv eget
ore d
p en
ĠC on
ĠS O
ent ion
Ġs us
Ġm ight
Ġh owever
ot her
ĠM ore
Ġbel ow
iv al
T P
3 3
Ġag ain
A P
ik e
Ġex hib
Ġa round
Ġcom mon
ent ly
re ad
Ġex ist
Ġfor cing
ib ility
Ġreg ul
Ġchan n
Ġl ength
Ġco upl
Ġpro ject
Ġfe ed
Ġs ection
Ġmanag ement
ĠS out
Ġcharacterist ics
Ġcomp ut
ai ly
Ġam pl
Ġ ir
ect or
m an
Ġinteract ion
m in
% ,
o f
ag ed
Ġspe ed
Ġbe ing
Ġbi om
Ġ es
ust r
p o
Ġrem ain
Ġproper ties
ect ive
Ġs yn
od y
on es
r ant
G F
Ġf lood
Ġn ort
em ber
Ġlo ad
n ot
Ġrequi red
Ġinteract ions
Ġe arly
ĠO n
Ġim mun
Ġc m
Ġmult iple
Ġfoc us
ual ly
l d
Ġresult ing
Ġtemperature s
Ġt ak
Ġres our
Ġvari ous
Ġindic ate
Ġb etter
Ġy ield
ap or
cl ud
Ġdef ined
ĠC l
Ġthere fore
Ġprop osed
. ;
6 0
Ġd rough
Ġpo st
Ġbehavi or
a e
Ġl ab
Ġ &
p id
Ġapp ear
Ġappro xim
Ġst im
I S
Ġseason al
Ġanaly ses
Ġin put
a pe
Ġline ar
Ġl ink
Ġd am
Ġc ases
Ġprovid ed
i ly
Ġso ut
Ġcircul ation
re am
ap s
um n
A S
Ġe ffici
Ġre cept
ure s
Ġen han
ĠS ci
Ġactiv ation
3 4
a w
Ġcap ac
P S
Ġs al
Ġse lected
l ant
Ġdevelop ed
Ġpl ants
Ġexpl ain
por al
ĠÎ ²
Ġre al
3 2
7 0
Ġp ers
Ġc ross
Ġtrend s
Ġhigh ly
Ġcl uster
op y
Ġsequ ence
Ġpartic les
Ġloc ated
Ġele v
Ġec osystem
Ġdeterm ine
sc ale
ðĿ Ĳ
Ġterm s
h y
Ġint ensity
Ġrespons es
E M
Ġest ab
Ġacc ording
Ġant ib
Ġ urban
Ġd aily
Ġh om
Ġof f
Ġ +
ĠE x
s et
ĠR e
o y
ar ch
C O
Ġs k
er ing
Ġcompar ison
m ore
Ġveget ation
end ed
Ġcent ral
Ġse en
ĠC ent
Ġcompon ents
he st
Ġm aterial
Ġs olution
ĠÎ ±
Ġerr or
Ġf it
Ġd el
Ġn orth
o un
Ġle ast
itud es
im ent
Ġgroup s
pec ific
Ġev olution
ul f
an ces
Ġfra ction
Ġfore cast
Ġs ince
Ġref lect
Ġbiom ass
Ġh a
Ġexp ressed
en se
Ġconf ir
Ġal though
ist ance
Ġsens it
3 1
el oc
Ġexperiment al
Ġmemb rane
u le
im ens
3 6
v en
Ġ2 4
a u
r ig
Ġin du
or ith
an c
C l
Ġsmall er
Ġs now
ĠIn stit
Ġsour ces
pec ially
Ġsimul ated
T C
st ream
Ġdis pl
Ġad j
Ġeffici ency
Ġdecreas ed
l ing
Ġv eloc
Ġf ew
v ing
Ġmain ly
Ġdynam ics
r ate
s h
Ġaddition al
ĠS im
if er
Ġris k
ĠE N
Ġcon n
ĠD e
ac y
av es
Ġwe ight
s ed
3 8
Ġvol ume
Ġv i
Ġprob le
in ally
Ġk in
Ġact ive
Ġalg orith
Ġ4 0
Ġconst ant
ro du
Ġb acter
Ġcond ition
Ġhyp ot
Ġder ived
uro pe
P a
Ġtre es
or ph
z ym
ĠUn iversity
e ad
at her
Ġw et
Ġgener ated
Ġper cent
Ġregion al
Ġab und
Ġtrans fer
Ġu pper
Ġsu per
ul ations
Ġg l
O D
ly ing
3 7
Ġperiod s
i i
Ġc r
iqu e
Ġw id
Ġinclud ed
ist ic
Ġp H
Ġacc um
Ġthan k
Ġhig hest
ogen ic
4 5
og n
Ġdirect ly
am m
Ġcaus ed
Ġ >
Ġcons um
ic es
âĢ ī
Ġev idence
ab il
ĠN i
ri ed
b y
ĠFurther more
Ġvari ations
Ġg as
Ġst ill
ir d
Ġcle ar
Ġthe m
C P
re t
lant ic
Ġident ify
Ġstr ateg
Ġl ack
Ġm ar
ĠW h
Ġsuggest s
Ġs ed
Ġt um
Ġpoint s
ĠC a
Ġcon serv
b ack
Ġdrough t
ĠâĢ Ĳ
Ġstre am
Ġst rain
Ġcor re
aly sis
Ġb en
Ġest imate
at ors
Ġ200 0
g round
o ch
A G
Ġs ynt
Ġco ast
Ġestim ates
Ġt iss
Ġso uth
v ent
Ġan im
nd om
Ġcoe fficient
Ġes pecially
Ġover all
Ġv ia
ĠW hen
ot ic
w ays
Ġc re
osp here
Ġconfir m
ĠP M
ĠE urope
Ġ Ï
Ġcompon ent
ĠB ec
Ġindic ating
ĠAt lantic
d ition
or iz
19 9
Ġcapac ity
Ġindic ates
n al
Ġm ade
emb le
Ġ1 7
Ġprim ary
Ġhel p
u ous
l ike
e or
Ġev ent
m it
Ġind ependent
w here
Ġcol lected
Ġtranscri ption
Ġsensit ivity
Ġfunction al
Ġmechanism s
Ġstructure s
are nt
Ġgener ally
ĠC om
Ġval id
Ġdet ected
Ġfinding s
Ġra pid
Ġ201 3
1 00
il es
Ġst ations
ect ions
Ġsub st
Ġlim ited
Ġw ild
Î Ķ
Ġk ey
Ġag re
Ġcrit ical
Ġatmosp here
8 0
ch ie
l ation
Ġfeature s
ĠH e
Ġlim it
Ġra ndom
Ġbl ock
Ġradi ation
Ġdis s
Ġ âī
ort ion
Ġ201 5
Ġmut ant
s on
Ġsu c
ot t
Ġprodu ced
Ġf ac
j ected
Ġindic ated
Ġprom ot
l or
od e
ĠBec ause
Ġ âĪ
Ġstr at
Ġ201 0
Ġof ten
Ġstre ng
r ated
in ity
Ġf ive
ĠO cean
Ġa chie
E T
Ġal t
d ependent
od el
ty pe
ac hes
Ġconst ruct
C S
Ġs light
3 9
ast ic
Ġne cess
Ġen c
Ġdec l
Ġto ward
Ġvari able
ĠH ere
Ġm it
Ġc hemical
N O
Ġf und
ĠA fter
en e
Ġf ree
as m
Ġbound ary
Ġse ed
Ġreg ard
Ġl if
Ġinter p
Ġsc hem
Ġbi as
ĠMore over
at ter
Ġmod e
u c
Ġdis e
Ġcontain ing
iz ing
Ġm g
Ġdist ance
Ġhe ter
Ġo pen
Ġsampl ing
Ġtem poral
t le
Ġch rom
oriz on
Ġs l
Ġagain st
Ġe p
res hold
ab it
Ġpredict ed
Ġis ol
an s
Ġcl os
en ced
Ġaffect ed
v ere
ag ing
4 2
Â ·
on ic
s pecific
Ġsp ring
Ġinclud e
Ġst art
Ġ201 4
Ġsuggest ing
Ġveloc ity
Ġconduct ed
% )
Ġsignal ing
ĠW T
ct ic
Ġco ol
R F
Ġb ro
Ġpos ition
Ġl ines
Ġant i
t he
Ġad apt
o pt
Ġre st
iv ing
Ġmean s
rol og
Ġ x
Ġen zym
f old
el f
Ġapproxim ately
ĠE n
i ation
m et
re en
Ġground water
Ġout put
ri or
p ect
Ġec on
Ġextre me
or ption
and s
Ġab ility
Ġprovid es
Ġr iver
t ime
Ġmonth ly
Ġex ce
Ġ201 2
Ġreveal ed
Ġsub str
Ġc ulture
il t
in duced
i os
Ġcol d
Ġth reshold
Ġde vi
Ġfollow ed
ĠEN SO
at ers
v ement
Ġmagn itude
Ġrat her
c id
Ġt end
Ġminim um
in o
c om
ĠF e
ĠE l
Ġeffect ive
t t
Ġrequ ire
Ġa ge
Ġloc ation
Ġst ation
Ġproduct s
l er
ĠE qu
p ro
ĠR iver
Ġo pp
Ġdist in
Ġh orizon
N P
Ġstatist ical
Ġtest ed
Ġ6 0
Ġm ed
Ġreg ression
b ed
ogen e
e k
Ġorgan ic
Ġimpact s
Ġ201 1
Ġfun ctions
Ġob ject
Ġneur ons
Ġre ad
Ġe ar
Ġgre at
Ġ201 6
char ge
Ġre d
/ /
et y
Ġg ood
pp ing
Ġh and
Ġag ric
Ġexam ined
a ir
Ġdemonstr ated
Ġobserv ation
M P
r is
as k
Ġac cess
i or
4 4
itro gen
Ġrem ov
Ġdire ction
5 3
Ġext ract
: //
am p
Ġ ess
Ġs w
Ġsum m
id ity
Ġnum er
ak ing
ĠS c
C D
iz es
Ġcont ribution
res ents
Ġsit u
Ġredu ce
Ġpe pt
Ġ200 6
mer ic
Ġ ill
Ġresour ces
Ġnort hern
Ġc apt
ab ol
ult ural
Ġb al
er o
Ġre view
Ġrep resents
Ġflux es
ur y
Ġ200 7
ĠC M
Ġtherm al
Ġ ut
ol ar
Ġmole cular
Ġsuc cess
O C
le vel
Ġb est
Ġw ood
ĠP l
ut ions
Ġforest s
Ġenhan ced
Ġens emble
Ġw estern
ĠâĢ ĺ
Ġcl ose
Ġref erence
m iss
Ġprob ability
Ġ200 9
Ġbas in
Ġb re
Ġinvol ved
Ġst orm
Ġfeed back
or ies
ari ly
Ġf ix
Ġess ential
um ent
ĠW ith
Ġn m
m ost
Ġoccur s
Ġgre en
ol s
E P
Ġimp lement
Ġpre c
Ġpa ir
Ġcol umn
Ġ200 8
Ġent ire
y r
Ġsol ar
Ġ200 5
Ġn ut
Ġre ason
Ġs ide
Ġreact ion
Ġde ep
f low
Ġl ater
Ġpredict ion
Ġuncertain ty
Ġan g
Ġgra d
Ġsc ales
f or
ĠC H
y ear
Ġphys ical
abit at
Ġparticular ly
Ġp rior
Ġsp ace
Ġrep ort
4 8
Ġunderstand ing
Ġeas tern
P I
Ġpop ulations
Ġtrans ition
Ġf ram
Ġlead ing
ĠI f
ĠE T
Ġa qu
ane ous
Ġf ull
Ġresid ues
Ġdistin ct
as ons
Ġf am
Ġsuggest ed
Ġpath way
7 5
Ġ201 7
ub le
ar ies
c ence
t on
Ġvari ance
Ġin duced
Ġcomp osition
ĠI L
Ġemiss ion
ak es
Ġt urb
Ġb ar
Ġstud ied
Ġalgorith m
ra y
z one
ĠP h
Ġcar ried
Ġimport ance
Ġ200 3
Ġfollow s
s p
Ġpl ay
or ld
Ġpl an
Ġh al
Ġchann el
v ant
Ġext ra
ĠP D
Ġsubst ant
os ite
lo pe
p ir
Ġv ary
Ġmon itor
Ġra d
Ġl ast
d ay
Ġstrong ly
Ġabs ence
9 0
Ġe ver
os is
ĠN A
ĠSim ilar
w are
od ies
Ġmix ed
Ġaccur acy
y c
ĠI m
u k
b or
ver s
ter s
ar v
Ġgen etic
ĠN a
Ġse lection
ell ite
ĠA meric
4 3
4 1
4 7
Ġcoupl ed
ĠSout h
Ġl og
ĠA cc
R E
Ġn et
Ġext ent
ĠC o
Ġse lect
led ge
Ġbro ad
B S
Ġs low
Ġsout hern
Ġcommun ity
Ġa gg
Ġcharacter ized
yt es
p ite
Ġben ef
w w
Ġmedi um
e ed
Ġ200 4
amet er
Ġsequ ences
ĠSci ence
so on
Ġequ ation
im in
Ġinc ub
P P
Ġrec om
Ġm ust
Ġhyd rolog
Ġoccur red
Ġext ens
Ġpartic ip
id s
Ġ201 8
Ġmonth s
Ġsed iment
Ġdeg rad
ing ly
Ġatt ribut
Ġequ ator
Ġactiv ities
Ġinvestig ated
ress ing
Ġanom aly
Ġh abitat
Ġpro ced
Ġt er
Ġ200 2
Ġtak en
Ġrecept or
4 6
g ment
Ġf u
Ġun t
Ġcomb ined
ul ate
Ġal tern
Ġw aters
Ġqu est
Ġse e
a ces
Ġsub sequ
Ġpl ot
Ġs erv
o u
Ġa x
or atory
eor ological
Ġgrad ient
Ġmodel ing
ĠM e
ĠB y
ff er
Ġpartic le
Ġcorrel ated
enc ies
Ġp ract
Ġhorizon tal
land s
Ġf ire
Ġmet abol
Ġst age
Ġslight ly
C T
r ies
im er
Ġst able
ĠC A
Ġm ouse
Ġob tain
Ġcomp et
Ġf ind
x t
oty p
pl oy
f act
Ġox id
t rop
Ġcomp ound
l ig
Ġwh ole
enc ing
ic ult
âĪ Ĥ
Ġrun off
Ġd en
ol ved
Ġcan not
Ġscenari os
cul es
ul y
un e
Ġ200 1
4 9
5 5
Ġprog ram
Ġfield s
Ġstruct ural
Ġcr yst
or age
w h
Ġbu ild
ri x
Ġz onal
re nce
Ġc ore
ĠF inally
Ġdiff icult
ig en
it ing
Ġscenari o
S S
is p
ĠB i
cri pt
Ġcon sequ
ĠO ne
ĠS W
Ġro ot
Ġvi ew
Ġnut ri
Ġc ateg
Ġkn ow
get her
Ġto gether
as h
c hes
ic y
Ġc er
osp heric
F P
ac ed
Ġconsum ption
âĪ ĳ
Ġprodu ce
Ġgener ation
an y
Ġd iversity
Ġ2 1
Ġd ra
ru ction
pp ed
Ġcloud s
Ġd iv
Ġf ib
Ġen g
ĠP re
Ġdet ect
Ġb rain
Ġt urn
Ġwe ather
Ġc ause
oty pe
i ence
Ġsur v
A A
' s
Ġstreng th
/ âĪĴ
ĠA g
er ation
ĠD ata
Ġadd ed
ros c
I R
Ġs ix
Ġdec ad
Ġre plic
Ġdistribut ions
Ġc rop
S M
rel ated
Ġflu ores
Ġ20 20
l ict
av ing
ĠâĪ ¼
re at
ent al
Ġg u
Ġconv ection
Ġmeasure ment
Ġo zone
Ġm ac
Ġcomb ination
Ġnecess ary
Ġa ff
L R
oc ial
ĠÎ Ķ
ĠWh ile
D NA
Ġadj ust
Ġir rig
it al
ĠA M
Ġprof iles
Ġab le
Ġrec ogn
over n
Ġst ates
Ġ .,
Ġhe alth
Ġhe ating
Ġth ough
Ġshif t
Ġwas te
ĠM ed
Ġst orage
Ġlong er
Ġclim at
Ġerr ors
ri e
c ial
ĠF ound
Ġthrough out
Ġelect ric
Ġvir us
Ġre ce
Ġe ast
Ġtum or
Ġst ability
ĠS h
Ġmut ations
Ġbas is
it es
Ġ201 9
Ġth ick
Ġch all
ex p
od es
Ġz one
Ġaver aged
al ing
in ant
Ġpol ar
Ġe ff
Ġis s
if ically
Ġproble m
Ġmole cules
b rid
S P
Ġres istance
os ure
Ġprop ag
R I
le y
ĠFound ation
Ġloc ations
Ġan other
ĠC an
ym met
Ġvers ion
Ġmicro b
Ġso ft
Ġdomin ant
s ing
ĠN ote
6 5
ĠSe a
Ġpub lished
Ġmon soon
ĠInstit ute
ĠAcc ording
Ġlead s
Ġs lope
Ġf ail
ĠA f
Ġp ass
es is
all ed
Ġcal ib
r ich
Ġw ay
Ġlarg est
b ers
Ġg r
ire ct
Ġrec on
o pe
Ġpl ots
Ġdeg ree
Ġre an
Ġagre ement
Ġback ground
Ġh ost
ĠD uring
er al
Ġres erv
Ġdet ection
Ġdise ase
Ġre ach
7 9
l ess
i ents
Ġdecreas es
or n
Ġabund ance
Ġvol t
ĠS D
Ġmod er
d le
sc ill
Ġsat ellite
ac hed
iv o
Ġf ar
Ġd ust
Ġro t
Ġs he
Ġsu fficient
Ġever y
Ġ /
miss ion
Ġrecord ed
Ġimpro ve
il ib
Ġconf lict
ĠS p
Ġapplic ation
Ġtra ck
Ġcer tain
Ġro b
ĠÂ µ
Ġd rop
Ġal most
â ĭ
Ġl ig
Ġcapt ure
Ġvis ual
ist ry
ĠAd dition
Ġh our
Ġmix ing
Ġdem and
k e
Ġfac il
l ier
Ġg o
Ġlik e
Î ³
Ġp ast
Ġn itrogen
ĠEqu ation
Ġmat rix
Ġm er
le x
Ġpub lic
Î ¼
Ġexce ed
Ġinter nal
Ġsub ject
Ġphosph ory
Ġsign als
Ġremov al
ograph ic
ver se
as ter
o ir
Ġec ological
Ġsupp ly
un g
Ġindividual s
cell ular
Ġbal ance
ĠA L
Ġf inal
olog ies
Ġdiscus sed
es ter
Ġcontribut e
ĠG en
ĠI I
Ġb ur
Ġex c
g in
Ġcool ing
5 7
y gen
re n
ĠG rant
Ġb ase
h ance
Ġwind s
Ġhal f
B P
Ġimpro ved
Ġm RNA
Ġinhib it
Ġcorrel ations
Ġle af
ĠAf ric
Ġmonitor ing
l ish
Ġaccum ulation
Ġhum idity
ĠL e
Ġv ector
ic ity
ct u
us cript
ĠThe y
an nual
Ġele ments
Ġun it
Ġprof ile
om en
ffici ents
Ġl ate
Ġtiss ue
Ġorig in
Ġanim als
Ġfix ed
Ġrem ains
Ġman uscript
j ection
Ġcontin uous
Ġill ustr
Ġinvestig ate
it able
Ġoptim al
b e
s er
a h
Ġcy to
Ġdynam ic
Ġcorre ct
Ġrele ase
if orm
Ġh Pa
Ġz ero
Ġhypot hesis
Ġen hance
Ġequ al
ĠS u
Ġ ion
Ġex cept
Ġf ish
Ġcoe fficients
Ġsecond ary
Ġut il
Ġe fficient
u ary
Ġse em
Ġne xt
Ġestab lished
hy d
Ġdi ameter
Ġresult ed
Ġdemonstr ate
Ġm es
Ġ2 2
over y
Ġco v
R P
S D
Ġsim ple
Ġecon omic
ĠJ uly
Ġm ake
E C
L P
Ġlit tle
c ad
Ġret rie
Ġv ivo
Ġdispl ay
ĠS ince
Ġmult i
I N
Ġup on
Ġac qu
um p
Ġsubstr ate
Ġindic es
Ġtre ated
an n
Ġl ip
ug ust
ĠT C
Ġland sc
% .
Ġle ar
in c
Ġ ide
Ġex chan
Ġinf ection
g o
Ġs ocial
Ġreg ulation
ĠO ver
Ġbu ffer
9 9
et s
t rans
ĠS ch
Ġrob ust
Ġdis charge
Ġv apor
Ġre pe
Ġst em
om er
Ġampl itude
Ġexp osure
ĠA m
Ġoccur rence
l at
Ġrel i
ĠS ection
Ġflu ctu
ĠIn t
Ġmeasure s
is ed
Ġschem e
Ġpoll ution
Ġagg reg
am e
Ġcrit er
str ict
Ġint ens
on t
Ġlay ers
it ative
or por
ell ing
arv est
od s
ograph y
Ġm orph
Ġch o
Ġcont ext
Ġco ord
Ġwh o
Ġconst ra
w n
ott om
Ġrele vant
Ġ2 8
Ġstim ul
iqu id
Ġbi ological
Ġne ut
Ġbec ome
A D
z e
i ous
ĠC ol
Ġpers ist
T R
ĠCent er
o ot
w est
âĪĴ /âĪĴ
p os
5 1
Ġem b
ĠN ot
Ġvolt age
Ġevalu ate
Ġass emb
Ġs ulf
Ġappro aches
Ġf in
Ġre pl
Ġagric ultural
ut es
Ġ9 0
Ġdetail ed
Ġ2 6
Ġanomal ous
Ġ199 9
th rop
Ġelect ron
Ġmemb ers
Ġpro l
Ġevalu ated
o ber
Ġsens itive
ul ly
Ġstrong er
Ġirrig ation
Ġconv ective
un ction
V I
Ġneed ed
res h
Ġdep osition
ĠF rom
ĠM D
Ġconfirm ed
Ġm ig
w ave
ĠB ased
Ġ3 5
Ġcol l
ĠL i
Ġdegrad ation
erest im
Ġnot ed
Ġcent er
ra b
Ġunt il
ĠE R
Ġgrow ing
ĠS P
Ġhe m
Ġw aves
yl ation
Ġdataset s
ew ork
Ġdevi ation
ort ex
ch ing
ĠN H
Ġdom ains
Ġrelationship s
Ġint r
ul a
Ġdown stream
ĠR eg
Ġmut ants
Ġf av
ĠM eth
Ġelect ro
Ġprovid ing
em ents
Ġ199 8
Ġw orld
Ġg ly
5 6
S C
w ise
Ġim ages
O F
Ġpr in
Ġhist or
Ġd uration
Ġw est
Ġcle arly
Ġ2 3
Ġb ody
Ġlit er
Ġappear s
Ġreserv oir
Ġadd ressed
Ġev apor
Ġcont act
Ġsignific ance
Ġpoll ut
Ġcon cl
pl es
Ġgen ome
B L
Ġassum ed
Ġresp ond
Ġc hem
Ġequ ilib
Ġr ight
Ġem ploy
Ġass ay
Ġpath ways
Ġsub s
Ġfor ce
T T
Ġdistribut ed
Ġform ed
Ġexplain ed
od ing
ĠF irst
Ġ3 7
I n
ra nd
Ġm el
ĠJ an
ĠB oth
Ġn ature
Ġcomple te
. )
Ġcommun ities
Ġprop ortion
A L
g er
ro duced
Ġt w
g ram
rop ri
ri um
Ġim plic
iv ation
Ġear lier
Ġf ood
Ġdecl are
os ynt
Ġrat ios
ur face
e h
ĠC ons
Ġlow est
line ar
Ġref er
Ġ2 7
ĠM ay
E N
Ġcat aly
end ing
ĠAr ctic
medi ated
ed u
Ġam ino
Ġavail ability
Ġpercent age
ĠU sing
oc ytes
Ġs il
Ġm ill
Ġknow ledge
os ome
Ġfil ter
Ġ5 00
A N
Ġf all
Ġtest s
Ġox ygen
Ġg overn
he ast
Ġsur ve
pt ember
Ġsoft ware
Ġmet eorological
Ġv s
Ġradi ative
Ġdam age
ĠD es
el ed
b s
Ġb and
Ġassess ment
Ġ2 9
Ġf ully
tain ing
Ġcan cer
Ġ8 0
Ġh arvest
Ġin str
Ġmut ation
lu e
ĠJ une
5 8
Ġf arm
Ġ -
Ġcell ular
Ã ±
Ġb ind
Ġset s
Ġal le
Ġas pect
e qu
Ġtyp ical
Ġantib ody
ĠInd ian
t urb
g ments
ival ent
Ġn an
oc hemical
v als
Fig s
Ġapp arent
ic le
Ġlif e
Ġv itro
Ġorig inal
Ġm ap
Ġliter ature
Ġse vere
Ġextre m
ĠEurope an
G G
Ġf em
ĠC al
Ġal ter
S E
he tic
I C
Ġ199 7
Ġwh at
Ġl iquid
Ġisol ated
Ġm y
Ġf resh
lu c
Ġexam ine
Ġse asons
Ġs qu
ĠS T
Ġallow s
Ġrequi res
l a
Ġuse ful
term inal
Ġhigh light
ĠN o
Ġinhib ition
Ġs em
ĠA ugust
am in
A B
k n
Ġd ivid
Ġdesign ed
r um
Ġpat ients
Ġcy t
d own
ĠUn ited
Ġâī Ī
Ġfram ework
ĠHe alth
L C
av y
Ġcon cer
Ġsp read
ĠM odel
Ġad ult
min ist
im es
Ġre strict
el ine
Ġ *
9 5
or ter
Ġtrans form
Ġint ra
Ġsurv ival
Ġm aps
ðĿĳ ĸ
Ġpre f
is ing
int s
Ġnum bers
Ġj ust
o ved
Ġpo or
op le
6 1
Ġbi o
Ġfam ily
Ġun ique
ðĿ ľ
Ġinc orpor
Ġgener ate
ar s
ĠP C
Ġcoast al
s ide
Ġrespons ible
Ġt ax
M R
st ruct
ce m
Ġrepresent ed
O S
Ġhydrolog ical
us e
Ġsh ape
ĠÎ¼ g
Ġadv ant
Ġis ot
Ġstrateg y
ĠJan uary
Ġpept ide
anc y
b l
Ġnumer ical
Ġstatist ically
Ġinclud es
Ġapp ropri
i ological
iqu es
Ġ9 5
D P
Ġevalu ation
Ġdef ic
ism s
Ġch lor
Ġemb ry
Ġf ract
Ġa im
Ġconf ig
pr il
Ġestab lish
Ġcur ve
ĠE RA
ĠA R
os en
6 7
Ġrecent ly
i red
Ġlarg ely
Ġproced ure
Ġrem oved
at in
Ġcompound s
Ġecosystem s
ist s
Ġrean alysis
Ġdis per
5 2
Ġan throp
in f
medi ate
Ġo scill
Ġ7 0
âĭ ħ
Ġinter annual
Ġtreat ments
ĠG CM
r at
en ing
Ġcomput ed
ĠE q
ĠT P
Ġclim atic
Ġcost s
Ġsubsequ ent
. -
Ġcol on
Ġn it
a ro
Ġelev ation
Ġst ain
ect s
o h
Ġper turb
Ġdetail s
Ġmid dle
Ġcount ries
Ġfu el
Ġprocess ing
tern al
Ġde v
or b
Ġconsider ing
Ġpl ace
ra p
Ġform s
Ġchann els
ĠAddition ally
ustr ial
Ġprim arily
o ly
p art
ul es
Ġ her
ĠD r
Ġassess ed
Ġmix t
Ġdepend s
hel ess
P D
ĠN e
Ġd imens
Ġl ag
Ġhy brid
â Ĩ
C H
Ġwe ek
Ġpart s
Ġoper ation
ogen ous
Ġad opt
ac c
Ġtyp ically
Ġs elf
Ġsoil s
Ġshow ing
op ic
Ġb ud
Ġopt ical
me an
Ġav oid
Ġo v
Ġp ul
Ġexhib it
ĠB e
Ġun its
Ġn ow
M D
Ġpre vent
Ġbacter ia
d ing
Ġcomp are
Ġp an
Ġdat ab
6 8
w e
Ġmaterial s
l ies
Ġchall en
5 4
M A
Ġwid ely
ell ow
Ġsus tain
roph ic
Ġad s
ĠL a
Ġpre p
Ġsub un
urn al
T A
ĠS uch
ust ral
Ġt e
Ġus ually
Ġf ron
i pp
Ġar tic
Ġquest ion
Ġl ed
Ġaltern ative
ient ific
Ġtechn iques
or ation
Ġp ack
Ġcalcul ation
Ġestim ation
ĠNi Ã±
h ood
Ġcon cept
oc al
Ġposs ibility
Ġlat ter
Ġd ig
re p
Ġpe ople
Ġlat itude
Ġbacter ial
Ġcoord in
P C
ĠP CR
Ġdec omp
00 1
is her
art ment
clud ed
Ġmod es
Ġelev ated
Ġenzym e
Ġexchan ge
Ġact ual
y cl
Ġinter val
Ġhe ad
ord er
Ġ q
ĠC F
Ġconserv ation
ĠSe ptember
Ġhistor ical
Ġadd ress
ct ober
Ġb ran
Ġf ert
a z
Ġcat ch
Ġphen omen
o z
Ġdecreas ing
ĠA TP
Ġtranscri pt
as tern
c hed
Ġmat ter
Ġth ird
Ġnetwork s
b inding
Ġfluores cence
Ġdec ision
r ary
al og
6 3
Ġhe avy
ĠE ast
al le
Ġthick ness
Ġw ide
ĠM et
v ol
Ġb ond
Ġb ottom
Ġdep endent
ĠS ec
cem ber
Ġle ft
c an
Ġfacil it
ere nt
Ġphosphory lation
Ġmer id
Ġp p
ĠI s
Ġrep rodu
Ġpro te
ri er
Ġlear ning
Ġanthrop ogenic
ĠÎ ´
Ġcontrol s
Ġnutri ent
hen s
Ġcont ains
Ġn ative
ĠC omp
Ġno ise
ĠC ar
l amm
ĠAmeric a
r ight
ĠS o
Ġstrateg ies
) :
Ġlandsc ape
Ġcompar able
ut ed
Ġcalcul ate
ort s
Ġneut ral
och ond
Ġequilib rium
Ġus es
Ġconst it
Ġc ut
Ġprin cip
Ġstrain s
pt ake
Ġm us
Ġbi ases
Ġtrop osphere
erg ence
it er
an ced
ĠSt ates
Ġsk ill
Ġmost ly
ĠMeth ods
Ġlo op
O R
d en
Ġk g
a pp
re ated
Ġcoupl ing
d ed
ogen esis
Ġrecom b
Ġch osen
Ġassoci ation
ect ors
ĠM g
Ġdepend ence
tt ps
Ġal one
Ġlab oratory
ĠÎ¼ M
Ġto o
Ġpredict ions
Ġsynt hesis
Ġamount s
ing u
î ĥ
C L
Ġappropri ate
I F
o per
ĠCM IP
or gan
Ġcent ury
Ġlink ed
Ġspect ral
Ġsu itable
C N
rom et
ĠP r
Ġne arly
Ġequ ivalent
ĠM J
Ġdo uble
ĠC R
S R
ra ul
Ġnot e
5 9
ĠC ell
6 6
ĠA nt
k ing
7 8
M M
ĠM arch
um ul
ĠAs ia
Ġhy per
ĠL ab
ĠPro gram
Ġint roduced
Ġredu cing
Ġresid ual
Ġinteg rated
Ġ20 21
Ġim age
Ġcaus es
Ġex ternal
Ġthe ory
Ġbre ak
ogene ous
Ġ199 6
Ġincub ated
kn own
ĠZ h
Ġpotential ly
E D
Ġac cept
Ġu ptake
Ġexhib ited
Ġmod ified
Î ¸
I V
ro g
Ġgr ass
ult aneous
read y
t a
Ġw rit
Ġm amm
Ġachie ved
m ail
Ġl ake
ĠC T
Ġin ver
ĠA pril
Ġo il
s k
Ġtechn ique
rosc opy
Ġinflu enced
Ġother s
Ġar ch
Â ¯
i j
Ġmerid ional
Ġfocus ed
ĠAfric a
Ġtrans l
Ġt ask
Ġph ases
Ġout c
Ġturb ul
Ġmicrob ial
Ġdr iven
Ġret urn
Ġcomple t
Ġmethod ology
Ġb ox
ĠF ore
Ġlat itudes
un ter
Ġtra ining
Ġcontribut ions
Ġsub trop
ĠS H
Ġtr ig
Ġequator ial
Ġnucle ar
L A
ign ed
isp here
Ġint rodu
Ġcontain ed
Ġantib odies
Ġst ages
Ġar t
6 9
6 4
Ġm em
Ġ4 8
Ġtr ial
Ġon set
Ġw ar
ynam ic
Ġevapor ation
Ġaerosol s
Ġsur round
Ġl ist
Ġaccur ate
otyp es
N F
c os
ic les
Ġremain ing
ĠT echn
âĢ² -
Ġconver g
Ġal ready
Ġ Ã
Ġcluster s
Ġs ections
Ġcorrespond ence
ĠB as
ar th
Ġto x
ĠE ach
â Ħ
Ġexist ing
Ġrec overy
Ġpo ol
Ġst abil
at ically
imens ional
Ġpromot er
Ġspect ra
u ed
Ġrapid ly
ru pt
6 2
Ġpl asm
ma x
an sion
raul ic
Ġm ort
ĠN ort
I D
Ġy et
Ġmit ochond
f aces
oc ation
Ġsubstant ial
Ġins ight
Ġim pl
Ġunder lying
Ġmot ion
Ġcan opy
Ġdep os
Ġthe ore
Ġactiv ated
Ġcontribut ed
Ġsc atter
Ġsol id
Ġf ast
âĢ ĺ
Ġ4 5
Ġpol icy
Ġsol utions
Ġwaters hed
Ġequ ations
GF P
Ġor ient
P R
Î ´
Ġcomplex es
Ġch ain
7 7
Ġtrans ient
Ġspect rum
Ġprol ifer
Ġh aving
Ġro ugh
Ġr ise
ĠP V
Ġt ub
ĠM in
Ġst e
ru it
0 2
Ġstep s
Ġtra ject
Ġcir c
ĠSci ences
Ġflow s
Ġmajor ity
Ġrecept ors
Ġeng ine
Ġep it
Ġattribut ed
Ġconserv ed
âĨ Ĵ
Ġre ached
m L
en n
aterial s
Ġsupport ing
ĠAs s
. ),
Ġang le
Ġk e
Ġex cess
Ġvalid ation
ify ing
a ff
ĠP NA
ĠSimilar ly
ĠW ater
y g
9 8
Ġb ul
ĠN C
pl asm
Ġwh om
ag en
a res
Ġem pir
Ġexp ansion
7 3
Ġmodel ed
Ġbec omes
omet ry
nd er
ĠN ew
ĠM S
Ġmar ine
om s
Ġcon form
ĠU SA
Ġsh all
Ġc ru
om al
Ġpeak s
c her
Ġam b
Ġabs orption
ĠD ep
l i
Ġ ult
b ru
c ule
Ġm iss
ĠO ctober
Ġinterp ret
Ġa ction
Ġcontrol led
Ġcalib ration
Ġsim ultaneous
Ġdifferent iation
Ġele ment
Ġclass ification
row n
Ġsw it
ob ic
Ġacid s
Ġreg ime
Ġclos ely
ĠS ystem
Ġup stream
Ġpre par
Ġj et
ĠCl imate
ĠFig s
b i
Ġdivid ed
Ġtrans f
O M
Ġdecad es
ĠU V
Ġalt itude
b o
ĠInd eed
Ġdr ug
Ġsuccess ful
Ġa po
Ġallow ed
d ef
Ġgra du
in us
us ions
x p
ure d
ĠT wo
Ġdiff usion
Ġn am
st ate
Ġprep ared
Ġwid th
ĠSout hern
L S
Ġm i
Ġproble ms
Ġcol lection
Ġmo un
ort un
ĠN ov
Ġmoun tain
Ġs and
ĠS pec
Ġ199 0
Ġhydro gen
alle l
ro c
Ġvers us
bru ary
Ġran ges
Ġhyd raulic
Ġanalyz e
os omes
Ġinteg r
ol ute
ĠDe cember
ur s
Ġconf idence
MS E
Ġd il
Ġne ural
Ġ3 1
Ġ ),
d y
Ġw all
Ġm aking
ere nces
Ġdatab ase
Ġ3 2
Ġt ake
ĠI F
Ġcol i
Ġext ended
Ġmort ality
Ġde ple
7 6
om y
Ġextract ed
H C
Î »
Ġm om
Ġspec ifically
8 5
Ġh ouse
) -
c m
Ġtrans mission
Ġb lood
apt ic
Ġdef in
Ġmark ed
Ġdi urnal
Ġmem ory
ur rent
Ï ĥ
Ë ľ
ĠA ustral
ĠG iven
Ġinit i
Ġnon linear
r ical
T he
ĠI g
Ġm ach
Ġdiscus s
Ġs pl
ad s
Ġimmun e
Ġcycl es
Ġw a
ĠMJ O
e ast
Ġrecord s
S F
d ata
Ġs ector
Ġconverg ence
Ġdes pite
Ġg ain
Ġcur ves
Ġtiss ues
Ġv eh
ĠInt erest
Ġdiff er
Ġl i
Ġsumm ar
Ġresour ce
Ġident ical
Ġbe gin
Ġl ys
ra ft
op es
Ġf ine
Ġuncertain ties
Ġcol lect
s u
E F
ra ction
d om
Ġde ath
Ġbas ic
Ġcharacterist ic
Ġinst ead
ĠThe n
Ġun iform
Ġfra gment
ic ip
g al
7 1
Ġvari ed
Ġr ich
V A
Ġexper i
Ġtechn ology
Ġev ident
Ġelectric ity
el i
Ġopp osite
Ġinter mediate
Ġapplic ations
Ġst ock
Ġmot if
as ma
ot rans
Ġcriter ia
Ġdepend ing
Ġt ru
. ).
Ġreact ions
Ġ ).
ul in
Ġmo vement
% ),
Ġocc up
ac ent
Ġcalcul ations
Ġcompar ing
Ġpl ate
ĠG u
Ġclass es
ĠC P
viron ments
Ġpoly mer
ĠS ub
Ġprot oc
Ġkin ase
ĠS M
ra di
C E
o on
ĠInterest ingly
Ġhypot hes
ĠM on
Ġar g
ĠP R
Ġanim al
Ġoptim ization
Ġindu ce
pt ions
le ts
Ġsc reen
ult s
Ġquant itative
ian g
der ived
ĠC N
Ġdist urb
bed o
ĠH ence
Ġp ix
f ree
Ġchan ging
Ġs oci
r ict
Ġc he
Ġresp ir
ĠM ost
con t
ĠG r
ap an
Ġf ig
Ġd ens
Ġdec line
Ġmixt ure
Ã ©
âĢĻ âĢĻ
or g
Ġinvestig ation
Ġ199 5
ai red
am ine
Ġvir al
Ġartic le
Ġdesc ri
Ġd iver
Ġobject ive
m od
Ġvari ety
Ġphen otype
oc y
Ġy r
Ġacc el
ĠIn c
ib ly
Ġp en
Ġpro jected
Ġle aves
Ġcomplet ely
w ith
c rib
Ġconstruct ed
im il
is ons
ĠS ome
Ġexp osed
Ġpropag ation
Ġd oc
Ġne igh
Ġinter vals
7 2
Ġfav or
ent ional
Ġon to
Ġchar ge
T G
ov ered
Ġrel ation
ĠSec ond
Ġ3 00
Ġs izes
Ġstand s
Ï ī
ill ed
A s
Ġsurve y
Ġac et
Ġabs olute
Ġn ight
Ġsal t
Ġbuild ing
Ġdescrib e
Ġpl ays
Ġd ate
Ġshif ts
Ġprot ection
Ġdevelop ing
er y
ĠM a
c ale
Ġconst ruction
Ġpair s
Ġv ul
Ġfluctu ations
ĠQ u
Ġpur ified
et ics
Ġexp ect
eth yl
Ġstatist ics
O H
Ġext end
Ġstim ulation
Ġwaste water
8 8
Ġm ention
Ġm L
Ġen vironments
N D
Ġp ump
Ġind irect
Ġmet al
ĠS m
Ġshe ar
ys ical
Ġco ur
ĠU nder
ĠCon t
b it
Ġident ification
t heless
ĠDes pite
Ġg luc
at ives
po int
Ġinst ance
Ġvary ing
ĠâĢĺ âĢĺ
Ġo lig
ĠG H
Ġwh ose
ace ment
d imensional
Ġad minist
Ġe th
ĠB C
Ġexpl an
Ġinstr ument
c at
Ġfert il
Ġind ustrial
Ġbud get
ar se
Ġdomin ated
re hens
Ġob vious
Ġtechn ical
Ġpl aced
Ġindu ction
Ġal ways
ĠNiÃ± o
Ġempir ical
Ġweak er
îĥ ¶
if t
Ġneed s
Ġb lue
ĠH em
vel ength
Ġc umul
iz ations
omet ric
Ġmin eral
ead y
Ġdel ay
Ġatt ention
Ġb ore
gen ic
Ġnormal ized
ĠA G
i res
ĠL ake
Ġpred om
Ġcorrespond s
Ġs ym
Ġsub stit
Ġsimul ate
Ï ģ
Ġqu ite
ro up
ĠM A
Ġcover age
a ver
Ġtarget s
ĠJ apan
Ġmain tain
Ġthere by
Ġd one
iven ess
Ġinter face
Ġsubtrop ical
Ġregard ing
ĠE C
ph ase
Ġcomp osite
Ġman ner
O P
Ġth in
clud e
Ġrepresent ative
iv ated
Ġass ays
Ġe ight
ĠS E
r ial
Ġd rain
w ide
om a
Ġran ging
ĠU S
Ġset ting
v alu
l ab
l im
Ġfrequ encies
Ġkn ock
Ġrece ived
ink ing
oph il
ĠP er
Ġemploy ed
Ġmed ian
Ġax is
omet er
Ġsepar ate
hel ial
Ġconcer n
z ing
ol ation
p ort
ĠSt ud
Ġpres ents
Ġbl ack
ĠE arth
Ġbul k
Ġprob ably
Ġsim pl
Ġal bedo
Ġimpro vement
ĠA P
lat itude
Ġexp ress
Ġo wn
it ively
ĠP ol
ĠA b
Ġproduct ivity
ĠPre vious
Ġconver sion
R T
Ġachie ve
m l
i ot
Ġco unter
W P
Ġens ure
reg ulated
Ġrepresent ation
ad a
t ered
ĠP A
Ġmig ration
n o
Ġregul atory
Ġto ol
Ġaffect s
7 4
Ġaspect s
M I
ĠÎ¼ m
d r
Ġsub set
Ġsal inity
Ġrem ote
Ġsur faces
ĠI P
vere xp
Ġin jection
o int
il i
Ġloss es
ĠB ay
act ive
Ġpl asma
Ġphys iological
Ġed ge
en ed
oci ated
Ġreplic ation
ĠW ang
Ġcov ari
Ġflu id
Ġindic ators
Ġadv ection
Ġcommon ly
ĠM ar
Ġremain ed
Ġne uro
Ġt et
0 8
ĠNov ember
ĠO ther
Ġtru e
or rel
Ġseem s
ĠA D
c ar
Ġob ser
Ġout side
Ġmit ig
Ġ3 6
ĠFe bruary
at al
ĠSu pp
ĠRe cent
Ġsampl ed
Ġpar allel
Ġrun s
Ġcru cial
Ġtest ing
Ġmill ion
Ġp ut
Ġbenef its
Ġstat us
Ġmain tained
Ġdec ay
res olution
ĠM aterials
ĠPNA S
B C
Ġinf lamm
st ation
Ġoccur ring
m m
um ents
Ġdi agn
Ġconn ect
ĠN P
ĠEn vironment
h ouse
0 3
B D
Ġcomp ens
ist ent
Ġn orm
Ġconv entional
ĠT rans
Ġmom ent
Ġhuman s
Ġlit ter
y e
Ġp ine
k g
Ġexp ressing
Ġdist ingu
at ur
ĠS w
I M
ay er
ĠNort hern
Ġrefer red
an ol
Ġen ough
Ġmo b
ot ide
P CR
Ġcomp rehens
ðĿĳ ¡
Ġaff inity
Ġinput s
n el
Ġ3 3
ĠA nd
is c
Ġvul ner
Ġhe nce
Ġchan ged
Ġadvant age
Ġun known
ogene ity
Ġcomple ment
Ġer os
ĠR CP
Ġpart ially
Ġr ib
Ġparticip ants
5 00
abil ities
Ġinteg ration
ole cular
Ġhouse hold
Ġexpl ore
Ġf usion
Ġwind ow
Ġass imil
ĠS S
Ġadj acent
Ġconn ected
ub iqu
clud ing
Ġtra dition
Ġgrow n
ic a
Ġde let
at s
ot es
if orn
Ġsh ar
crib ed
Ġra re
Ġclimat ological
k s
Ġm akes
Ġwa velength
Ġb o
Ġbi od
Ġbas eline
Ġc ity
Ġcorre ction
Ġtheore tical
il s
Ġshall ow
an ning
Ġimplement ed
O N
Ġtra its
ce ived
con n
ym ph
k now
Ġobserv ational
Ġse ven
iff iff
im ents
Ġcl in
Ġassum ption
L D
Ġoxid ation
Ġz ones
Ġco p
ign ific
Ġexp on
Ġc alled
Ġlip id
Ġmoder ate
ĠAt mosp
Ġrepe ated
Ġdecomp osition
Ġt ail
Ġn ational
ĠT R
Ġquant ify
ĠP I
ran g
Ġserv ices
Ġc a
em pt
ww w
ĠÎ ³
er ior
Ġextens ive
Ġ1 50
ĠOver all
ĠIn ter
Ġre aches
Ġ199 4
Ġbas al
y ond
Ġbe yond
Ġphot osynt
Ġsupp lement
Ġb ed
Ġtum ors
Ġdisplay ed
Ġenzym es
Ġcateg ories
se c
ĠE OF
ĠG FP
Ġrepresent ing
C F
Ġsus p
C h
Ġass istance
Ġiss ues
Ġac know
Ï Ħ
Ġsubstant ially
Ġup d
Ġins ide
Ġcryst al
Ġdr iving
ir us
Ġas ymmet
ot al
) ]
Ġcompar isons
eli hood
E G
Ġpos itions
Ġeffect ively
Ġdoc ument
Ġexp and
Ġiss ue
d o
Ġprom ote
Ġlig and
Ġc as
iforn ia
Ġo verexp
Ġno vel
Ġsurround ing
Ġan alog
Ġpl astic
ac ing
ĠAm ong
ĠM c
Ġper me
Ġmole cule
Ġcho ice
Ġdef ine
B M
ĠN ever
Ġpre v
Ġ ðĿĳ
b ox
ĠG e
in ated
here nt
Ġsimilar ity
ĠD iff
Ġf a
ĠNever theless
Ġgl ac
Ġdiver se
Ġinflu ences
ig ma
ific ations
Ġem erg
ĠN D
Ġprolifer ation
Ġsepar ated
Ġund erestim
Ġforecast s
îĥ¶ îĥ¶
Ġadapt ation
ĠAs ian
ar ctic
Ġlat ent
v ements
Ġinhib itor
Ġcurrent ly
t reated
Ġy east
Ġmark et
Ġamb ient
Ġads orption
Ġst eady
C o
e ared
Ġcar ry
Ġph yl
Ġm ature
Ġclass ified
ĠPro ject
Ġor d
Ġch am
g i
ĠE P
Ġproject ions
ĠCal ifornia
Ġl akes
Ġconsist s
Ġprepar ation
Ġyield s
A I
ĠFore st
in ary
requ ency
is es
ĠInstit utes
Ġgreat ly
ic o
ĠB r
ĠO r
l ings
Ġredu ces
ĠMe an
ĠS ever
os a
c al
Ġl ib
Ġinv as
ĠT r
or ing
ĠM OD
ĠR H
Ġits elf
ĠH y
Ġro les
Ġim aging
if e
n ov
Ġmot or
ĠDep artment
Ġprog ress
b re
Ġ3 8
Ġrecon struct
est ic
Ġc ult
os omal
ri ef
Ġmention ed
Ġche ck
Ġmechan ical
in ations
al k
Ġresid ue
Ġf lex
Ġtranscription al
ĠNA O
Ġro ck
Ġto ler
Ġd est
b ound
0 4
he astern
Ġcre ated
w estern
Ġ ions
p ly
Ġspec ial
ten ance
Ġh ard
Ġb atter
Ġr ivers
0 6
Ġse arch
ĠC L
ar row
RNA s
Ġsat is
x y
E L
an ge
Ġprop ort
Ġmed ia
ĠW estern
ĠAn other
Ġv aries
lob al
wo od
Ġst ri
Ġsus cept
Ġconfig uration
Ġsequ encing
Ġapo pt
ĠM ic
Ġpart ial
Ġwrit ing
Ġstrat osphere
Ġ198 0
ar c
Ġeros ion
Ġimplement ation
ĠHem isphere
ĠN F
Ġinf ilt
Ġassemb ly
ĠA T
ignific ant
ĠG erm
Ġgen omic
ob acter
est ed
Ġreg en
Ġw ester
Ġaffect ing
Ġappro ved
Ġfor ced
Ġfron t
ph as
Ġp y
Ġhydro ph
al ian
Ġ iron
V s
Ġim m
u fact
os ing
Ġcour se
E s
itud inal
Ġqu al
Ġ3 4
âĪĴ âĪĴ
Ġrecom m
Ġ7 5
Ġradi us
Ġd on
se ud
Ġfrequ ently
am b
Ġabund ant
ĠH igh
Ġ ~
ĠSever al
s hip
id al
Ġg ive
Ġinst it
8 9
et her
Ġc ort
Ġhour s
Ġend ogenous
us h
ĠAl so
g l
in ent
E X
Ġh ome
Ġh ttps
Ġmain tenance
Ġcol or
Ġch ron
or al
Ġorgan isms
Ġdecad al
Ġg ap
Ġro om
Ġauth or
Ġstart ing
Ġp arent
Ġoper ating
G A
Ġs ymmet
Ġover l
ubiqu it
Ġcatch ment
Ġpollut ants
Ġse gment
200 0
ip s
Ġaut umn
ĠN I
Ġintra cellular
Ġapplic able
Ġalt ered
rast ruct
Ġatt empt
Ġcount ry
ĠH ad
d ec
Ġl ymph
Ġcle av
on omic
Ġexper ience
oun ced
Ġfund am
Ġbegin ning
0 9
Ġscatter ing
Ġprec urs
ĠRes ults
Ġcomprehens ive
re te
Î µ
ol l
Ġpredom inant
ard i
ens ion
ĠH u
is ions
red ict
8 1
Ġinf ected
Ġdeterm ining
Ġpr on
s l
ic it
Ġext in
p ose
ad ed
Ġpr ice
Ġcomp ris
Ġ199 3
Ġel imin
s al
Ġup ward
er ve
c ers
Ġsens or
Ġman ufact
Ġdiv ergence
ort ing
Ġsitu ation
hyd ro
ĠP P
Ġmac roph
and id
Ġsepar ation
is ition
Ġcomp osed
Ġconstra ints
N N
Ġfresh water
ĠD M
Ġadopt ed
Ġdisturb ance
rane an
T S
ass ociated
Ġpos itively
Ġc ities
Ġed dy
od ium
ap es
F e
Ġtradition al
ra ck
ĠS A
Ġhom olog
r ics
ĠD C
im et
man n
Ġd ram
Ġmic ros
tt p
a im
Ġv ortex
) =
Ġfund ed
Ġdiscus sion
Ġextra ction
Ġf ir
Ġopp ortun
ĠD ue
t ically
ĠR ec
Ġfract ions
Ġp ortion
o oth
t ion
f requency
Ġsulf ate
Ġplan ning
r if
ĠA rab
Ġindic ator
Î º
n ormal
re str
F s
F C
Ġres ol
Ġet c
Ġart ific
Ġalgorith ms
Ġcommun ic
ear cher
Ġfail ure
Ġcomplex ity
um es
F D
ci um
R S
a fter
Ġgluc ose
ĠO b
od ynamic
Ġmetabol ic
Ġprob e
Ġacc omp
Ġocean ic
e e
al ed
ĠC u
Ġinter f
Ġcomput ational
Ġphenomen on
pir ation
ĠIF N
Ġinterest ing
Ġreport s
ĠP BS
ĠAmeric an
iter ranean
restr ial
Ġquant ified
Ġcond ens
Ġneigh bor
Ġdi ag
o ol
Ġc are
ĠSO C
Ġm ale
ch ron
Ġreg ulated
Ġc DNA
ason al
Ġt un
Ġg erm
Ġex act
ES M
Ġr ing
Ġem phas
8 6
Ġtrans formation
Ġconsider able
ĠO f
C a
rop ical
Ġdep ict
ist ant
Ġinf er
ĠAn alysis
Ġpept ides
ĠBas in
Ġclimat ology
Ġrespect ive
Ġeas ily
m ic
qu e
ĠÂ ©
Ġpron ounced
Ġsubstr ates
Ġvari ants
Ġh arm
Ġimpl ies
Ġlim its
Ġgra di
ĠR T
Ġon es
Ġdepos ited
ot ential
ĠEn ergy
Ġtim ing
Ġexpl icit
âī ¤
Ġpo le
r ates
ĠAnt arctic
K O
Ġstain ing
Ġg ives
I T
te b
at ch
Ġmin or
Ġgradi ents
Ġforecast ing
ĠD i
Ġan c
Ġd u
m ing
Ġexhib its
mer cial
ran es
Ġgradu ally
ric es
Ġran ged
Ġrec ruit
Ġex cl
Ġv ent
ĠE ng
Ġcyto plasm
Ġlater al
Ġ ;
Ġdynam ical
Ġmus cle
ank ton
n a
Ġor th
Ġtend ency
Ġdifferent ial
Ġmitochond rial
Ġload ing
k m
Ġrequire ments
âĢ ĥ
Ġspat ially
ĠP art
ol low
Ġposs ibly
Ġtra de
Ġp ore
O A
Ġbore al
ĠS te
Ġallow ing
Ġro ots
Ġwas hed
op ro
Ġact in
S t
Ġs un
Ġreason able
8 3
Ġgreen house
t hen
Ġon ce
Ġaut om
201 0
Ġp ip
Ġcontribut es
orrel ation
B A
Ġsh orter
Ġfrequ ent
Ġd ose
G C
Ġneur onal
Ġsumm ary
in ess
im al
ĠG reen
Ġreg imes
yc in
Ġconsequ ence
Ġn odes
8 7
Ġwh ite
ust ry
Ġo ld
Ġconcl usions
Ġ1 000
Ġcre ate
Ġreli able
Ġplasm id
Ġs hel
ĠF ran
w ell
lo ud
Ġtoward s
ed ing
am er
Ġacqu isition
ĠM P
Ġconcl usion
ĠP ub
Ġsh are
Ġdiss olved
Ġcurrent s
oun g
ĠTechn ology
Ġdrain age
or ous
Ġgu id
Ġsem i
Ġcon c
op re
Ġinterpret ation
Ġsimultaneous ly
ĠP ar
ĠI D
ĠMed iterranean
Ġt ri
Ġsustain able
Ġfund ing
Ġproject s
Ġse x
ĠZh ang
Ġeff orts
os es
ĠC d
w er
p in
U S
ap se
Ġmod ul
ĠM o
j ug
8 4
Ġgra ph
9 6
Ġc andid
Ġapp eared
Ġrecogn ition
Ġbiod iversity
cip it
Ġlimit ations
201 5
Ġir radi
Ġfem ale
f unction
Ġwh y
Ġevolution ary
Ġbas ins
Ġtrop ospheric
Ġhist ory
du ction
Ġdeple tion
pos itive
% ).
Ġagric ulture
mit ted
Ġextrem ely
Ġh old
Ġdelet ion
ĠB l
Ġfor ward
ĠR MSE
as er
ord s
ox ide
ĠD et
Ġneg atively
ĠS R
8 2
Ġpur pose
Ġpl at
Ġpol ic
ill ing
Ġkin etic
Ġst ored
ĠG W
ĠEx per
c he
Ġre asons
p ective
Ġb ands
Ġco al
Ġam mon
ph osph
Ġdens ities
c il
ĠFigure s
Ġd imer
Ġlocal ization
Ġgl ut
ĠH D
Ġso und
ly sis
Ġb ird
Ġcon formation
ĠM L
Ġant igen
n ew
Ġclin ical
Ġto ols
Ġrandom ly
Ġa way
Ġdescri ption
earcher s
Ġsubun it
Ġmic roscopy
Ġschem es
201 4
M O
Ġl aw
Ġwar mer
Ġk ind
0 7
ĠC onse
ĠN E
Ġtrig g
Ġreg ular
re ted
S e
form s
N C
st e
o pl
Ġrad ar
k in
Ġrele ased
Ġcom ments
em ic
ri a
if ies
Ġass igned
Ġre verse
ĠI II
Ġthough t
ic ial
Ġcumul ative
Ġstrat ospheric
ĠCom par
Ġsqu are
st and
s ens
Ġf aster
Ġcal cium
201 3
Ġexce ption
Ġstream flow
Ġcomp os
Ġrespir ation
Ġtechn ologies
Ġimplic ations
Ġcrop s
Ġmeas uring
am ination
ap otrans
Ġnit rate
Ġint ense
Ġt ext
Ġh ot
Ġs af
Ġcataly tic
Ġgra v
Ġn arrow
ĠM any
Ġreve als
Ġtransfer red
Ġtak ing
Ġsystem atic
Ġp ure
as cular
Ġchallen ge
Ġc ortex
Ġass ume
9 7
Ġquest ions
Ġtrial s
Ġpar as
Ġrich ness
Ġdeterm ination
Ġmiss ing
k ed
Ġde b
ĠA c
Ġobser ve
ðĿĲ ´
Ġmemb ranes
Ġsc ore
Ġf at
s urface
ĠN in
Ġn g
ĠAustral ia
Ġsens ing
ak en
Ġconduct ivity
Ġchem istry
apotrans piration
s ian
G S
D S
oz yg
Ġdown ward
z en
Ġpract ices
ar a
âĪ ¼
I L
Ġgovern ment
Ġter restrial
Ġtrop ics
Ġtra ffic
Ï Ģ
Ġcontin ental
ĠS am
Ġon line
Ġnumer ous
Ġ il
ra z
ast s
Ġmon it
ĠComp ared
Ġnutri ents
Ġm s
em perature
Ġmagn etic
Ġnam ely
201 6
Ġmetabol ism
Ġov erestim
Ġchrom osome
Ġide al
om ing
W F
oci ation
ra pe
Ġser um
ric hed
Ġmet rics
Ġdist ances
n eg
Ġd ip
Ġsepar ately
Ġaccel er
st er
Ġdec ade
Ġaccur ately
Ġextens ion
Ġvis ible
ĠE S
Ġcov ered
ip her
olog ically
ĠConse qu
Ġpro xim
Ġbel ong
Ġ20 22
Ġregul ate
r in
Ġdel iver
Ġst och
reg ulation
Ġunder go
Ġo l
Ġlo ok
e lect
c omp
ins ic
od ed
ĠNa Cl
Ġ199 2
ut ive
Ġal k
opt ic
H R
Ġsc ientific
re es
yl ated
Ġg rain
Ġseed lings
dr iven
medi ately
um an
Ġ ubiquit
Ġfundam ental
ĠR ad
Ġapp lying
ic ient
ĠSpec ifically
m ark
Ġrem ove
Ġsign ature
Ġc ode
Ġl ung
Ġc ere
Ġhelp ful
ĠM od
ĠG lobal
ĠA cad
ĠLab oratory
Ġsupp ress
Ġd ark
Ġcl osed
ĠT y
ĠEx p
Ġin form
Ġme et
per m
ĠConsequ ently
Ġg rant
Ġin jected
Ġprotoc ol
Ġte le
ĠS C
E A
p ass
Ġconsequ ences
Ġsc aling
Ġsynt hes
Ġenhance ment
Ġsed iments
Ġsc ores
Ġreflect s
Ġillustr ated
Ġextrem es
Ġdimens ion
Ġquant ity
Ġhabitat s
Ġproper ty
Ġcompet ition
Ġlab eled
ution al
z on
E d
y to
Ġculture s
Ġinvol ves
Ġcap able
s ection
) )
l ink
og ram
Ġrem ark
u x
Ġlist ed
ir al
R D
on ucle
st ruction
Ġwork ing
Ġher b
ne y
Ġrest oration
âĢ ¦
u it
ĠF L
Ġinf rastruct
Ġind ustry
Ġmod ification
Ġ3 9
Ġoper ational
Ġdiscuss ions
Ġadjust ed
Ġv es
Ġdefin ition
ipp oc
Ġminim al
Ġpan el
âĢ Ĳ
rape ut
Ġra w
ant ly
en z
l l
p re
Ġen rich
Ġdise ases
Ġs ch
Ġco oper
Ġth reat
ĠCent ral
Ġspecific ity
Ġmar g
Ġenc oding
Ġc ardi
Ġartific ial
Ġinvol ving
ĠF our
velop ment
s ub
Ġcomb ust
w ing
Ġsubsequ ently
ĠCons id
Ġco arse
f ect
e v
Ġequ ally
Ġtax a
ippoc amp
Ġle g
Ġphyl ogen
n ight
Ġch ild
Ġorient ation
ograph ical
ĠMOD IS
ĠT M
Ġcateg ory
Ġ4 2
Ġsubject s
en u
Ġv acc
Ġbu ilt
i otic
Ġcapture d
ur ations
Ġfra gments
Ġcyto k
f rom
it atively
Ġprincip al
us ed
Ġfit ting
co pe
ocy te
ĠS V
Ġincub ation
d es
ĠO H
O T
v is
as is
em poral
Ġev apotranspiration
Ġp ort
Ġcharacter ize
B R
ur ity
Ġsynt hetic
Ġcomb inations
II I
Ġcham ber
Ġform al
Ġculture d
J F
an es
3 00
ĠOn ly
Ġbe h
Ġn or
Ġprodu ces
Ġfacilit ate
ĠÃ ħ
ĠC oun
Ġsec ret
Ġsens ors
W T
ĠM an
ĠU TC
Ġconcentr ated
Ġveh icle
Ġal ign
Ġalle le
A pp
Ġg el
ĠN atural
Ġselect ive
ĠC r
Ġref lected
Ġacqu ired
Ġbehavior al
ol es
Ġre new
Ġbatter y
Ġbenef it
ĠInd ia
Ġtraject ories
Ġproced ures
Ġins ert
Ġtop ography
n m
Ġsm ooth
vers ely
et ary
ĠS er
Ġ1 20
Ġen erg
con taining
Ġdepth s
Ġmark ers
Ġcryst all
ĠR ep
Ġma pping
om ers
Ġfig ure
Ġ4 00
Ġfor ces
Ġbur ning
â İ
Ġsyn aptic
s s
ĠCell s
Ġextin ction
Ġres earchers
Ġl iver
Ġh is
Â ±
iz er
Ġqu ad
ĠW est
Ġstoch astic
um b
Ġdr ive
ĠSt at
Ġunderst ood
Ġrecruit ment
ĠC hen
W S
Ġgo al
Ġed iting
ĠNC EP
ðĿĳ Ľ
Ġelect rical
, âĢĿ
ĠMed ical
Ġinfilt ration
ĠCan ada
Ġ5 5
icy cl
ĠE ven
Ġtarget ed
Ġcontrol ling
ĠY ang
s m
Ġreal istic
Ġinit ially
an a
c or
Ġinit iation
ĠP K
Ġt able
Ġext rat
ĠE D
ic ular
act ivation
Ġ19 79
Ġrestrict ed
h o
Ġaqu ifer
Ġrel ax
Ġexist s
Ġdistingu ish
ĠEnvironment al
em y
um in
l ik
Ġm al
Ġsim ply
Ġf lo
ĠW RF
Ġbar rier
rif ug
200 5
Ġexist ence
G T
Ġexpl ored
du c
l ated
ĠTh ree
Ġvalu able
Ġmo ving
F A
ĠS a
P A
Ġstimul i
201 7
+ ,
Ġh ind
E I
wh at
Ġassum ptions
Ġfil am
Ġim mediately
Ġcle an
201 2
ard s
Ġtarget ing
Ġdevi ations
S V
Ġm is
Ġmedi ated
9 3
Ġmorph ology
NO VA
Ġtrans genic
Ġfem ales
Ġatt enu
ĠI R
ran ge
Ġcaus ing
Ġretrie val
lab eled
Ġch ains
Ġstimul us
ĠC I
Ġembry os
b al
Ġmonit ored
Ġreach ing
Ġchallen ges
el ing
Ġapopt osis
ag ged
Ġinhibit ors
Ġinter n
Ġv ort
Ġgly c
Âł Âł
Ġstorm s
Ġex cluded
M s
ĠF und
Ġsummar ized
Ġturbul ent
) /
J A
] ;
Ġn ode
Ġin ner
Ġsyn optic
Ġtr un
ro st
Ġst ra
Ġgl ass
9 2
Ġcon clude
Ġtak es
9 4
Ġheter ogeneity
Ġst er
Ġoutc omes
ag on
Ġf ace
Ġsub t
Ġpolic ies
Ġclos er
def icient
ĠCoun cil
Ġf light
Ġconform ational
M T
w elling
ber g
Ġc amp
Ġcycl one
Ġlocal ized
Ġs odium
AM P
ĠÎ »
Ġper ipher
B I
Ġh ippocamp
Ġv ectors
ur g
ce ption
Ġstreng then
Ġkin etics
a o
Ġexplan ation
Ġgreat est
ĠS LP
Ġparameter ization
m odel
Ġmoder n
Ġlik elihood
ollow ing
G E
Ġmamm alian
Ġbran ch
Ġsub jected
ĠIn formation
ĠGr ants
Ġdemonstr ates
oun tain
Ġsh ru
ĠM T
Ġassimil ation
Ġcl on
20 20
Ġapp ly
m al
Ġd end
ĠB o
Ġdifferent i
ĠP T
Ġsp in
Ġsubun its
Ġbel ie
Ġtrans lation
Ġweek s
Ġlack ing
n ed
Ġadapt ive
u an
ĠGCM s
Ġconsider ably
Ġsat uration
ĠR oss
Ġrec ycl
Ġf oss
ĠH IV
Ġpers pective
ĠG P
pl ant
cle ar
Ġb urn
Ġpl us
Ġâī ¤
Ġexperi enced
ĠA OD
Ġextra cellular
Ġpart ition
Ġeast ward
at aset
CA R
Ġcluster ing
Ġinhib ited
Ġst rand
Ġb one
upl ed
ĠAcad emy
ari an
Ġcombust ion
Ġc ry
h am
Ġl a
Ġdis rupt
Ġind eed
Ġoverl ap
Ġsl opes
Ġpre fer
Ġn ine
Ġ2 50
Ġmach ine
ĠAtmosp heric
Ġaver ages
ĠÏ ĥ
Ġmi R
m ol
Ġcleav age
Ġbound aries
Ġb odies
Ġp i
Ġhour ly
Ġbind s
Ġha z
h aps
ĠSc ientific
Ġtend s
S H
ob l
Ġinc re
e per
Ġplot ted
Ġimpro ving
Ġexpon ential
Ġf er
201 8
ĠA ct
Ġp seud
c a
t r
Ġsur pr
ach ing
Ġnorth ward
d s
Ġaver aging
Ġl aser
p H
Ġconn ection
Ġfol ding
Ġrec ording
Ġcl ones
ĠM O
Ġs i
Ed ited
Ġrecogn ized
Ġad equ
Ġrough ly
Ġser ve
Ġbl ot
Ġspect romet
G M
Ġsome what
z z
Ġfit ted
ĠD o
Ġaccomp an
wh ich
Ġbi of
Ġret ention
Ġwester ly
ĠCons istent
Ġdisc rep
Ġbec ame
âĪ Ī
Ġmod ule
Ġw ays
â Į
ĠV al
Ġprodu cing
Ġr ural
ĠK ore
Ġder iv
Ġant icycl
Ġn M
Ġblock ing
Ġflood ing
ĠSST s
Ġrep air
mon th
Ġaccount ed
Ġt ank
ĠW he
CM s
Ġin j
Ġl ost
Ġn ons
ĠN on
Ġc ogn
l ength
R s
g ov
Ġconver ted
il ies
ĠZ n
Ġdef ects
Ġmoment um
ro t
Ġsimilar ly
Ġide a
Ġdiag ram
Ġco inc
Ġprop ose
oid s
aly ses
Ġso le
Ġro ad
im p
G s
Ġadminist ration
Ġlif et
Ġf ires
W C
Ġj oint
emb les
Ġcort ical
he res
Ġcriter ion
Ġother wise
Ġform er
Ġhydroph obic
ĠG M
n s
Ġatt ract
Ġhe art
Ġrep ro
Ġmet als
Ġfin anc
Ġenrich ment
ĠH z
E K
T h
lic es
ii i
oph ysical
au ge
Ġdocument ed
Ġ6 5
ot ed
ĠC S
Ġcent rifug
at t
ellow ship
Ġcommunic ation
lig ible
L I
Ġh ar
te g
Ġl iving
ĠâĢ Ļ
Ġ199 1
ĠPro v
iv ari
Ġar ray
W h
Ġvol can
Ġspl it
e le
B s
Ġr ice
Ġphosph ate
Ġcom mercial
b p
Ġdefic i
Ġrot ation
Ġtw ice
D C
Ġinf low
Ġutil ized
ĠGerm any
Ġpen et
Ġch ol
et t
Ġthe rapeut
] ).
Ġs ink
Ġel ong
Ġintr insic
Ġep is
Ġinfrastruct ure
yl l
Ġout er
Ġis o
Ġtransf ected
Ġconsistent ly
Ġbi osynt
f ield
ĠSo il
Ġpoly m
p read
rop y
200 9
ĠE U
rap y
Ġagre ed
Ġorgan ization
H A
Ġturbul ence
Ġconsider ation
Ġaccum ulated
ĠDe velopment
re st
Ġdra ft
Ġexpl o
Ġdom estic
ðĿĳ ¥
or us
Ġaqu atic
Ġprim ers
ides pread
Ġf oot
Ġpract ice
it ect
Ġp s
Ġdr ivers
Ġsol uble
a ign
Ġm ales
Ġfib ro
Ġeff lu
Ġmean ing
Ġqu ick
pl ate
Ġstrong est
Ġc od
Ġre vers
Ġse gments
Ġrepl aced
Ġg ran
d is
Ġun clear
Ġn ull
ens us
Ġdisc r
on ym
ĠP S
neg ative
N T
ĠF ollowing
Ġdirect ions
Ġassum ing
Ġchrom atin
Ġsever ity
N H
Ġtranscript s
Ġprocess ed
Ġfluores cent
Ġke ep
st im
Ġinsight s
Ġpro gen
Ġen riched
Ġaccompan ied
Ġnucle otide
h Pa
Ġproport ional
Ġcomp lic
200 6
Ġ ign
e b
Ġpersist ence
201 1
duct ive
200 8
B O
Ġs ense
Ġsuccessful ly
Ġfew er
eng ing
ĠÂµ g
Ġcon cluded
ĠIm port
aus sian
Ġ4 1
re view
og ether
se a
op s
am s
H I
Ġhel ix
m ed
us ive
ĠK O
ĠPro tein
n ers
Ġweight s
hem istry
Ġdi ab
oc c
200 7
ib er
ĠM ountain
op sis
p at
Ġw idespread
Ġp el
Ġad hes
Ġsyn chron
Ġmark er
Ġem it
ĠT CR
Ġ4 4
Ġb us
ĠN ext
Ġpre ced
ru ce
ox id
201 9
Ġtoler ance
Ġpul se
as hed
Ġwe b
Ġfil tered
Ġact ions
g reg
ĠL ST
Ġsat ur
Ġconnect ivity
Ġwell s
Ġtele conn
D A
ĠN MR
m p
ĠS al
Ġmat ch
Ġtra ce
ĠCan cer
n at
Ġpp m
Ġre charge
Ġindu ces
B H
Ġheight s
Ġident ity
cept ual
wh ile
Ġrecomb ination
Ġregen eration
Ġpix els
+ /
per ate
Ġw ords
Ġreact ive
ĠI V
Ġl y
Ġheter ogeneous
Ġstream s
Ġsk in
ĠM ex
Ġmanufact ure
ĠM M
Ġdimens ions
ad ing
Ġindependent ly
s en
Ġcoordin ates
a er
Ġidentify ing
Î ·
Ġfit ness
ĠH P
l n
Ġ4 3
Ġperturb ation
Ġ7 2
ĠC AM
Ġg ases
Ġl es
ĠS ur
Ġfoss il
Ġcontribut ing
Ġaccount ing
Ġpl ates
ĠCent re
Ġvirus es
ĠL T
rom e
Ġent er
as i
h al
Ġoverexp ression
Ġlim itation
ur ning
ma zon
Ġadd ing
Ġfe as
re ct
Ġexam ples
Ġtrans itions
Ġrep orter
Ġtherm odynamic
ell a
Ġnucle us
Ġinv ent
ĠTh at
S ST
Ġredu ctions
Ġpat ch
Ġres il
Ġreli ability
Ġinhibit ory
9 1
Ġhom ogeneous
reas t
est s
Ġpart ly
Ġdeg rees
ĠN K
D a
Ġn ic
Ġdrough ts
Ġpoor ly
oc l
ĠR F
Ġt ry
Ġins ulin
ol id
Ġspec ified
op ause
sh ore
ĠN S
Îº B
et al
Ġrecon struction
ines e
Ġload s
ol ated
Ġo d
Ġsupport s
W s
H P
Ġthreshold s
c ome
lik ely
Ġanaly tical
200 4
k a
Ġlight ning
Ã ¶
Ġcont amination
Ġag ents
hem at
ĠM C
it ability
reat ment
200 3
ĠH ow
el t
Ġb aro
Ġdispl acement
ĠP en
Ġsatis f
f lu
ĠC C
N K
Ġpur pos
Ġge op
ot ox
Ġadjust ment
Ġstation ary
ress ive
ĠC G
rop ic
Ġb il
um ber
ĠM ult
Ġspeed s
A V
oc ene
re f
v ision
Ġb in
A F
R C
ĠB ar
Ġrecomb inant
Ġmod ifications
ail ed
Ġarch itect
og ens
ĠA mazon
ĠConsid ering
Ġmod elling
ĠS F
Ġb rid
Ġblock s
Ġfl at
oc yt
Ġneg ligible
Ġampl ification
Ġst atic
ĠP ark
Ġpack age
Ġseed s
Ġweight ed
ĠD O
Ġmod ulation
Ġro w
Ġm ember
it r
Ġge ographic
ophil a
Ġquant ities
Ġev ol
Ġres ident
Ġp ond
is hes
Ġtransform ed
er c
Ġharvest ed
Ġdec id
Ġmicros cope
ĠL and
Ġinver sion
ri ers
ĠAfric an
ĠC or
Ġe pid
rosc opic
Ġaccount s
Ġdetect able
m o
Ġrec ip
ag ement
A b
ivari ate
ĠB io
Ġpredominant ly
Ġpredict or
Ġestim ating
Ġk er
Ġpres erv
Ġsupp ression
ur a
Ġcorrect ed
Ġgener ating
Ġpredict ive
Ġbuild ings
Ġfam ilies
Ġlimit ing
Ġcamp aign
ar ing
ĠG C
ĠCh inese
Ġact s
Ġdis char
ĠR P
Ġb rief
Ġfarm ers
S L
in i
Ġpurpos es
Ġo ption
Ġpres um
i ers
Ġsh ared
Ġv ess
Ġloc us
Ġmo ve
Ġeff ort
Ġint act
ĠO ff
g roup
ĠPl ate
Ġdescrib es
Ġterm inus
ĠE CM
os in
Ġregul ating
Ġisot ope
F L
Ġfeedback s
Ġcharacter ization
st rand
Ġman ip
Ġcandid ate
Ġ9 9
at us
Ġanalyz ing
l og
Ġpredict ing
c y
Ġprincip le
Ġen ab
Ġter rain
Ġdevelopment al
Ġrequire ment
200 2
AG E
Ġstandard s
Ġy oung
200 1
Ġcycl ones
ap ed
Ġshort wave
Ġprom inent
ra red
Ġfinanc ial
Ġun likely
Ġoutput s
Ġeas ter
G P
Ġdown sc
Ġpract ical
m ut
ĠF lu
Ġepit helial
am pl
Ġdisper sion
Ġc all
ĠS an
onym ous
App endix
iv ate
Ġaggreg ation
Ġover la
Ġform ula
urban ces
Ġtransp orted
Ġge ographical
Ġpole ward
erest imate
) (
Ġpredict ors
uk ary
Ġun st
Ġdev ice
Ġchrom at
ĠS U
H z
Ġv an
Ġposs ess
- ,
Ġacc om
ðĿĳ ł
Ġg et
ĠND VI
Ġincreasing ly
Ġvulner ability
pe pt
Ġc av
ĠM y
Ġhypothes ized
Ġcalcul ating
Ġflood s
TC Z
ĠImport antly
Ġr h
Ġmass es
Ġoscill ation
Ġeffect iveness
Ġcovari ance
row th
Ġnort heast
Ġpre val
f ord
R B
Ġperturb ations
Ġessential ly
Ġt or
00 01
Ġfavor able
Ġgeop otential
Ġphen otypes
Ġplat form
Ġcl aim
Ġ4 6
Ġacc ord
rough t
ĠIg G
Ġres on
go ing
Ġprot on
Ġmanufacture r
Ġtraject ory
F T
Ġb reast
Ġmeth ylation
Ġl ive
Ġcont ents
Ġconsist ing
Ġprog ression
ĠT N
Ġefficient ly
ĠS AM
Ġmain taining
ĠE M
Ġro und
Ġcont amin
Ġinst ability
ac u
Ġreservoir s
. âĢĿ
Ġdist urbances
Ġnecess arily
âĪ Ĺ
Ġmeth ane
or a
Ġvort icity
Ġge ometry
Ġe gg
Ġpat ches
Ġver ified
Ġinstr uments
Ġpur ch
Ġgrav ity
Ġph yto
ĠR ef
Ġnorm ally
Ġsout heast
Ġa p
Ġle ak
ad al
Ġden otes
Ġmac ro
Ġpost erior
os ity
Ġdo ub
ĠL C
Ġtub e
Ġ19 70
Ġr ule
h u
ful ly
ĠE c
g reen
Ġday time
Ġwork s
Ġg auge
f l
Ġcalib rated
Ġrenew able
b and
Ġread ily
Ġvalid ated
R O
Ġpot ent
ĠP a
ĠSD S
oh n
ake hold
Ġampl ified
ĠU K
Ġacknow ledge
Ġvir t
im ers
ari a
Ġ( >
ĠOb serv
Ġoff set
Ġaut oc
Ġar r
ĠSt ate
Ġrisk s
Ġinvest ment
ĠExper iment
raz il
Ġserv ice
Ġun p
ĠD el
ĠE v
ĠNI H
Ġcontin u
ĠT ext
id ine
ont aneous
cont rol
hy de
Ġ( âĪĴ
Ġabs ent
Ġmel t
organ ic
ĠD ros
NP s
Ġalle les
x i
an o
id ar
Ġtem perate
Ġear th
Ġpredict ability
c el
Ġman if
at o
de hyde
ĠG aussian
Ġcent ers
Ġof fer
Ġstre t
Ġst o
ĠN or
ĠT otal
Ġd imin
L M
Ġre ag
Ġinc ome
Ġintens ities
Figure s
Ġis land
âī Ī
Ġeth anol
Ġs perm
Ġlong itude
ĠE r
ĠM al
ĠMin istry
H T
or ad
6 00
Ġinstit utional
Ġminim ize
v est
ĠA O
ĠIn tern
es ides
Ġne ver
Ġre in
v in
ens ive
ĠT Cs
im ately
Ġbi ochemical
otyp ic
Ġpix el
g rid
ðĿĳ İ
ðĿĳ Ĵ
u el
Ġrun ning
un icip
Ġdec isions
s yn
emb rane
Ġprec ise
ac cess
sk y
e ffect
Ġfail ed
ĠMD PI
Ġsupp ressed
Ġnorth west
Ġcent ered
c ol
Ġ |
Ġr ig
Ġmeth yl
Ġstart ed
Ġs omet
Ġe lu
Ġtherapeut ic
Ġ8 50
ozyg ous
Ġmacroph ages
id opsis
ur ine
Ġloc i
Ġtra vel
h igh
c raft
y ch
Ġbehavi ors
Ġsynthes ized
Ġâī ¥
ĠA C
ĠV ari
Ġres c
Ġb ir
oph yll
Ġgen omes
Ġvari ant
Ġalt itudes
U C
a ut
Ġform ing
Ġimpro vements
Ġim ag
ĠC urrent
ĠÎ¼ L
a ug
N S
w ind
Ġf re
ĠHy d
Ġswit ch
Ġsoci o
p rop
ing er
ĠH A
Ġpp b
ost ic
p i
Ġabs orb
ĠA NOVA
Ġins ect
im mun
Ġres olved
Ġshif ted
ĠP e
ĠPlate au
Ġ198 9
ĠÏ Ħ
Ġadvant ages
Ġphenomen a
Ġconstruct s
Ġs ectors
ec onomic
Ġb ring
+ -
fore station
Ġretrie ved
Ġapproxim ation
Ġlifet ime
Ġf al
Ġmitig ation
ad es
Ġ4 7
ĠThe ir
Ġrat s
Ġpl ane
Ġin oc
et ically
Ġpersist ent
Ġinst ruct
Ġprogram s
âĢĿ ,
Ġput ative
D I
ier arch
Ġdisper sal
ĠB razil
ĠStat ist
ĠP L
1 20
Ġass ign
Ġke pt
cell ent
Ġ198 7
ens is
act ivated
ĠS erv
Ġper haps
Ã ¡
il ing
ĠG ulf
Ġsu g
A r
Ġover night
Ġprot ect
ind ependent
ĠT ris
Ġinj ury
Ï ķ
t op
ĠArab idopsis
Ġestablish ment
Ġun fold
Ġlib rary
In ter
Ġsecret ion
ĠR O
Ġact ually
el ines
ro zen
im ination
Ġat oms
n am
Ġsp ontaneous
ĠD av
Ġcontin ued
t ub
Ġe ukary
Ġen able
il ities
Ġde eper
est ion
Ġdry ing
Ġoptim ized
ĠMex ico
Ġre tained
Ġreprodu ce
Ġphosph orus
ĠLi u
Ġextrat ropical
Ġant agon
Ġcarry ing
Ġdiss ip
ĠGH G
ĠEx t
Ġp ay
Ġdat es
mosp here
Ġdev ices
) ].
ĠCh an
Ġinflu encing
cl in
c in
Ġ198 8
ot ides
Ġactiv ate
Ġc yst
ĠStud ies
us s
Ġadv anced
Ġperme ability
Ġoscill ations
Ġinfer red
cl es
Ġmid latitude
Ġdr inking
Ġt ight
Ġst akehold
Ġl iv
ĠL D
ang u
ac et
d ep
Ġlig ands
Ġem bed
Ġdispl ays
f ish
A l
Ġisot opic
pr int
Ġcryst als
Ġinst alled
ĠOff ice
ĠDros ophila
f it
valu e
ro b
s im
Ġm ol
ĠT NF
Ġobject ives
ĠM n
Ġin h
Ġlar v
ra de
Ġf ed
z ed
Ġmat hemat
N s
Ġde ad
ĠM id
N R
r us
Ġw orth
ĠR el
ok e
ul ose
Ġassess ing
ĠâĢ Ŀ
om as
in cluding
Ġpres cribed
is ter
ĠT g
Ġprim er
Ġc oding
Ġfl ash
Ġdeliver y
oc ated
ĠE mail
Ġsol vent
c r
Ġcont our
Ġprot ected
or bed
b as
Ġwet land
he ad
Ġregard less
ĠG E
Ġcontinuous ly
Ġcirc uit
ĠE d
ĠProv ince
Ġfram e
Ġsc ience
Ġvol umes
Ġsp ruce
00 00
Ġprec ision
ill s
H F
Ġas h
Ġcover ing
Ġfeed ing
ĠS AT
Ġglob ally
Ġlong wave
Ġel astic
Ġbre eding
Ġt it
it z
Ġoutc ome
ion ed
Ġtw ent
ĠE A
ĠT F
ĠIn st
Ġanc est
l ife
Ġhousehold s
Ġin verse
ut ing
h ing
ĠD E
L a
Ġus ers
Ġar ise
ĠC E
Ġutil ization
ĠS i
pl ankton
ud ge
Ġsupplement ed
Ġs av
Ġveloc ities
1 50
ĠH O
ĠAr g
Ġha ir
L E
it ors
Ġpref erent
ðĿ Ľ
] :
Ġchild ren
Ġ9 6
f ire
ail s
ĠE F
l in
Ġpro jection
ĠA I
Ġit er
Ġillustr ates
Ġcompet ing
ub b
ĠP W
âĢ °
GF R
Ġbe am
Ġbird s
Ġfun gal
Ġp ig
Ġv ib
Ġpro xy
ĠB P
Ġinf ect
Ġvolcan ic
ĠH C
S W
ĠDiff erent
ðĿĳ Ł
Ġn one
bre ak
ĠG lu
Ġaut o
Ġintrodu ction
Ġ8 5
Ġsouth west
Ġampl itudes
Ġrad ical
Ġharvest ing
Ġex cellent
Ġpo ols
Ġs n
ĠInc reas
Ġbond s
Ġtem por
Ġcytoplasm ic
Ġc ro
ĠWith in
Ġillustr ate
ill i
ul ating
ĠW u
Ġconfig urations
ur as
Ġrad ial
Ġto ok
Ġg aps
Ġdemonstr ating
il ed
Ġm ask
Ġturb ine
Ġinflamm atory
Ġcount s
ĠM at
ĠÎ ¸
Ġle t
it a
ĠRoss by
Ġpi pe
Ġsubs urface
Ġm im
stand ing
Ġref ers
ĠNot ably
Ġrain y
Ġ6 00
ĠRecent ly
e ous
Ġresil ience
us p
Ġab normal
Ġdis ord
Ġtra it
Ġstain ed
Ġser ious
ip h
ĠM AP
ip ment
om ics
Ġdiv ision
Ë Ļ
Ġpe at
Ġb ank
Ġextract s
i pped
Ġincorpor ated
obacter ia
Ġsym b
Ġcomput ation
Ġinterp olation
Ġperipher al
Ġdisc rete
Ġcontact s
Ġsole ly
Ġad en
ĠE m
Ġhighlight ed
Ġwest ward
Ġconstra ined
D R
Ġocean s
ĠG R
Ġsufficient ly
Ġmicro ph
Ġnew ly
Ġall ocation
Ġpl ume
Ġc rown
Ġengine ering
Ġcl ar
Ġquick ly
Ġmorph ological
Ġdra w
Ġmon omer
ru ption
x imate
Ġconsist ency
form ed
Ġmet ric
st orm
Ġma ize
Ġin nov
Ġstra ight
ĠD JF
Ġdon or
Ġco res
st atic
en ergy
ater al
Ġ #
Ġextend s
Ġdefici ency
gen e
Ġcl ay
Ġinvol ve
Ġprecurs or
Ġg rate
ĠP O
Ġtet ra
h aus
Ġbran ches
Ġbi ot
Ġphotosynt hesis
a vi
Ġp rices
Ġyield ed
Ġne ither
Ġne u
erg ic
Ġsimul ating
Ġnucle ation
Ġchar ged
Ġe ffic
ĠO scill
Ġsmall est
s ite
Ġphylogen etic
aver aged
Ġf air
Ġsens ible
199 9
om b
D M
Ġin let
Ġcontin ue
ĠF R
ĠA ir
ĠI TCZ
er ted
Ġhealth y
Ġb p
opro tein
ĠL ar
Ġcont ract
re ceived
B T
Ġincl usion
h ttps
ond e
Ġdeterm in
Ġrec overed
Ġpollut ant
and er
Ġ( <
Ġblock ed
ĠMean while
on ical
Ġstock s
Ġwet lands
ĠKore a
ĠIntern ational
U n
arm ac
Ġaccord ance
ĠC y
ins ula
Ġpol it
ĠF A
G R
P M
Ġtrun c
Ġdip ole
Ġh ierarch
Ġpromot es
Ġmel ting
ĠR E
ĠReg ard
Ġs y
Ġend ot
ĠW NP
Ġcomb ining
Ġmathemat ical
Ġturn over
fore st
Ġent ry
Ġcon sec
4 00
S igma
it is
ĠBi ot
ĠP b
ĠCon versely
Ġha pp
a per
Ġr id
Ġtox ic
ĠB ut
ĠO LR
Ġrecycl ing
Ġ ðĿľ
Ġslow er
Ġt ip
Ġnucle i
Ġlarv ae
gen er
ro se
erg ed
Ġpercent ile
r as
ĠT S
Ġelu cid
ĠP o
ĠP et
ĠW W
Ġtim ber
Ġins u
ĠEqu ations
I A
Ġexperiment ally
Ġtrop opause
an i
Ġa st
p hen
Ġremov ing
it ory
Ġair craft
Ġre ar
Ġlength s
ĠS AR
Ġrecomm ended
r ating
id a
Ġregul ates
Ġcolumn s
Ġb ig
am ide
exp ressing
re c
Ġag ree
os cale
ðĿĲ ¶
Ġexc itation
ĠA F
Ġd ense
Ġaqu eous
Ġgrass land
ĠE uras
Ġf rict
ĠA Î²
Ġm or
Ġstim ulated
Ġv ascular
Ġoper ations
Ġfa ult
i ology
Ġpref erence
Ġext ending
ra ined
Ġfree zing
or ig
ĠI C
ĠH uman
Ġsuscept ibility
Ġmarg inal
Ġre ver
Ġd ual
Ġtrack s
Ġfacil ities
Ġm unicip
Ġfin ite
l ind
Ġp ict
Ġ âĦ
Ġt el
Ġpressure s
Ġsout heastern
el ves
Ġdram atically
ĠT aken
ĠB a
Ġsuper nat
Ġran k
bor ne
ĠD irect
Ġ4 9
T L
ĠM W
Ġag ent
we ight
Ġimp aired
at om
Ġexp ort
Ġslow ly
Ġneighbor ing
Ġn a
Ġun s
Ġretrie vals
Ġincre ment
Ġinst ant
Ġder ive
ĠA S
Ġaccept ed
ĠP redict
Ġend s
Ġfib er
Ġequ ipment
Inter im
Ġin organic
Ġb right
Ġar id
iffiff iffiff
Ġag on
our ce
v ention
Ġp al
Ġcon jug
v itrogen
old s
Ġro d
k er
Ġchall enging
Ġinst all
Ġver ify
ĠH is
it ch
et a
on ly
Ġdiffere d
Ġd ys
Ġembry onic
Ġbe ads
Ġ10 6
Ġsatur ated
] )
Ġloc ally
es ian
Ġsulf ur
Ġinterp reted
Ġcom es
ĠG l
Ġc ust
Ġconst ants
Ġt en
ĠOscill ation
Ġw k
Ġmet ast
Ġt ag
rang ement
Ġbenef icial
ĠC opy
ĠW orld
et te
Ġchron ic
is ation
Ġris ing
Ġdefic it
Ġfun gi
Ġterm inal
ĠMe as
Ġadv ance
Ġprob abilities
Ġproxim ity
l isher
Ġdil ution
Ġre ef
ĠInst ead
ro te
Ġdrop lets
Ġmel an
Ġout flow
w an
Ġ7 00
pro tein
ĠH ol
Ã ³
ĠP AR
Ġrepe at
Ġk it
Ġconsist ed
Ġcontin ent
Ġdend rit
Ġin herent
Ġcyt osol
Ġexceed s
ur ric
atur ally
ĠP F
ĠL u
Ġqu asi
ent h
Ġiniti ated
Ġcover s
Ġe igen
Ġed uc
le ted
Ġintern ational
Ġinflamm ation
Ġknock down
H D
ĠS L
Ġhom ogen
Ġline age
Ġrough ness
om atic
k y
Ġtransl ocation
ers on
Ġprob es
act ion
inf ected
Ġst om
Ġscreen ing
al a
ĠCopy right
Ġcoordin ate
et es
Ġbiosynt hesis
Ġtox icity
Ġsea water
Ġpan els
Ġt ens
Ġrepro ductive
Ġset up
Ġplastic ity
k i
Ġexpl ains
ĠSu per
ĠT ogether
Ġnan op
ĠP E
Ġconsec utive
ĠC CS
n on
ell ed
Ġp ie
Ġ â
U E
Ġsetting s
ĠB er
ĠC re
Ġd ivers
ib et
Ġconsequ ently
Ġhist one
Ġreflect ing
agn etic
Ġpre cipit
ĠCon ceptual
Ġ19 50
Ġhe x
Ġsusp ended
Ġcap ability
ðĿĳ Ĺ
Ġexpand ed
Ġ198 2
Ġorgan ized
Ġpoll en
ab s
ĠT ai
Ġdu plic
ĠI S
ĠD A
Ġcataly st
Ġdra wn
Ġread s
ĠC ity
ðĿĳ ĳ
Ġpath ogens
ĠJ JA
Ġcy lind
Ġeaster ly
Ġw or
1 01
Ġl idar
a ult
ere n
Ġtem plate
Ġcom e
ðĿĳ ĩ
Ġsequ est
h ttp
Ġhydro x
p olar
Ġinsu fficient
Ġac ute
Ġh orm
Ġspec imens
Ġe lic
Ġbar s
Ġcomp ute
Ġevalu ating
Ġer u
ĠH ar
re nd
Ġev olved
Ġopportun ity
Ġconstra int
Ġdrop let
Ġrean alyses
Ġrelax ation
Ġper fect
Ġexplicit ly
ĠL o
Ġl angu
Ġut ility
ĠN R
Ġref s
Ġ5 3
Ġphotosynt hetic
ve y
Ġmaxim a
Ġcirc um
ðĿĳ ļ
Ġtherm oc
Ġ5 2
Ġcateg or
ĠB L
ĠIn it
g r
ĠAg ric
ĠD is
Ġan s
Ġclass ical
Ġweak ening
Ġpat ient
Ġun able
Ġt rough
es e
Ġconf ined
lat itudes
ĠTh rough
Ġtra in
Ġdirect ed
Ġarchitect ure
oph ag
Ġprefer red
cl ass
Ġshar p
ĠI M
Ġres istant
Ġaggreg ates
Ġimp ly
T M
% âĢĵ
C re
p ase
Ġpath ogen
ig m
mit t
ost er
Ġ10 5
sp ring
f am
s uch
Ġseason ality
Ġglut am
an alysis
Ġexceed ed
Ġphys ics
ak er
ok ed
Ġsuscept ible
oc hemistry
Ã Ń
Ġthe ms
Ġth ym
ĠOr gan
Ġdist rict
h i
Ġthems elves
Ġeffic acy
ĠL ong
erg ent
Ġmotif s
I O
r ine
Ġcy an
und red
Ġalk al
ic ine
Ġus er
Ġ198 1
Ġrepl acement
Ġ( âĪ¼
D H
ĠM ut
z o
Ġoxid ative
Ġover come
ak ers
Ġfibro bl
Ġf isher
Ġland sl
ĠGreen land
Ġang les
Ġammon ium
Ġfil ters
Ġpartic ulate
Ġphosph at
Ġopt ions
Ġhydrolog ic
minist ration
v ance
ĠPre cipitation
ĠA MP
ĠL W
AT P
Ġelect r
m embrane
Ġbe gan
Ġmitochond ria
ase asonal
ĠF l
il le
Ġlandsc apes
ĠÂµ m
ĠT w
ĠO C
Ġlab eling
l ayer
Ġdis app
Ġgrid s
Ġconn ections
Ġsp acing
I s
Ġmob ility
Ġasymmet ric
Ġisol ation
B F
Ġdam p
ud e
ĠIm mun
Ġ5 6
Ġbeh ind
Ġsaf ety
Ġdil uted
Ġpar ad
Ġdiss ociation
Ġphyto plankton
Ġresident ial
ĠP an
Ġimplic ated
Ġworld wide
ugh t
Ġfl ank
Ġstandard ized
Ġh ous
Ġst ated
ĠB al
Ġlong itudinal
ĠD R
Ġin g
Ġsequ ential
Ġecon omy
Ġprol ong
Ġinsert ion
ĠMet eorological
Ġhydro lysis
Ġint est
ach ment
ian s
ĠH R
ĠM or
Ġp ock
link ed
ĠM ER
ĠB D
ot rophic
Ġfol d
il ized
Ġprov en
Ġtrack ing
c f
Ġel se
j iang
Ġacknow led
Ġstudy ing
Ġhaz ard
Ġunst able
Ġtrig ger
Ġed itor
ce ed
Ġsurve ys
Ġalter ations
ros ine
Ġappro ximate
Ġt i
Ġdelay ed
Ġadult s
ĠAccording ly
Ġrecomm end
th al
Ġcor al
Ġchar ging
lement ary
Ġgrid ded
ĠNO AA
Ġline arly
ex ist
iv ities
act in
Ġobject s
ĠD S
b ut
Ġdig ital
Ġthe rapy
Ġmes h
Ġhome ost
ĠIs land
Ġde ploy
pro cess
Ġpresum ably
c ales
ĠU p
Ġret ro
ĠConceptual ization
Ã ¼
d eg
ĠL AI
Ġinvas ion
Ġe ct
ĠR em
âĪ «
Ġcycl ing
Ġj u
199 8
Ġcolon ies
Ġen ables
l ong
Ġsustain ability
Ġphot o
Ġd op
anc ies
amet ers
he t
Ġsomet imes
ĠL PS
ill er
Ġshru b
Ġnot able
ĠJ ohn
Ġn aturally
en es
Ġ5 1
ij ing
ĠÎ¼ l
Ġpromot ing
e ine
Ġinteract s
Ġaim ed
Ġpolymer ase
) ).
b a
Ġadapt ed
Ġo ak
ĠGen er
Ġinvestig ations
Ġsec urity
ĠC W
Ġcap s
Ġsi RNA
Ġ* *
us ively
D E
Ġ5 4
Ġbu oy
is ingly
ĠÏ ģ
dec adal
a a
Ġforcing s
Ġhum id
y le
Ġqual itative
Ġwhe at
Ġsens ory
rom atic
se q
Ġcondens ation
Ġf inally
Ġinteg ral
Ġdiff ers
Ġimp air
if ers
ĠC loud
Ġvol at
b one
Ġelect roph
Ġdr iver
Ġconcept ual
ra ys
re ci
Ġdef ect
Ġattribut es
y lo
ĠF isher
Ġfib r
ĠM ich
Ġre ct
ĠAl tern
Ġfu els
Ġsal ine
Ġdi et
Ġclon ed
Ġun c
p ine
Ġextens ively
ĠG reat
Ġassoci ations
Ġh ttp
Ġ20 23
ĠT GF
Ġperform ing
Ġintr aseasonal
Ġflu or
Ġveh icles
on a
Ġ19 60
ir ing
Ġreview ers
Ġmarked ly
sens itive
âĢ ľ
ĠI N
Ġto ur
Ġs plic
Ġrespond ents
Ġflex ible
Ġv acu
Ġc amer
ĠR S
Ġfib ers
rab le
Ġfat ty
Ġbiof il
Ġinstruct ions
Ġflex ibility
Ġtimes cales
k ins
Ġre v
Ġsitu ations
r ist
r ite
ĠO nce
ĠG ene
CA M
ĠA lex
Ġnot ice
ment ioned
Ġtrans por
Ġper man
ion e
ys ics
ĠE lect
Ġcere b
Ġfertil izer
Ġh undred
Ġdepict ed
ĠAddition al
h ou
h our
Ġc it
r or
Ġ6 4
Ġrec over
Ġinter ior
Ġim per
od al
Ġopen ing
chan ged
Ġurban ization
at mosphere
Ġat omic
Ġcompos ites
Ġout let
her ly
Ġknock out
Ġswit ching
Ġ198 6
Ġco h
Ġneur on
il ization
Ġmamm als
Ġsubstit ution
Ġelectro de
ol ip
Ġhydro g
ĠT LR
fact ory
Ġl ign
ĠSub sequ
ĠPD O
Ġvulner able
ĠM I
ra w
Ġma pped
Ġsimpl ified
Ġadhes ion
Ġc e
ple te
Ġenhan ces
lo aded
Ġsouth ward
Ġins p
Ġwood y
ĠG roup
Ġult imately
Ġves icles
orig inal
Ġeffect or
1 10
imin ary
um ps
Ġo wing
Ġplant ing
p m
N I
20 21
Î¼ m
id ing
Ġf rozen
Ġmy el
Ġexam ining
Ġlink s
Ġp aired
Ġelev ations
Ġexceed ing
ĠUn like
Ġpump ing
Ġreconstruct ed
ĠG TP
Ġdeterm ines
ill ary
ous ly
ax is
Ġfal se
Ġr ules
ĠP H
Ġcons ensus
Ġappear ance
um er
Ġmat uration
Ġa ux
Ġsc ope
Ġpre y
ĠS un
Ġspect roscopy
Ġspat iot
ĠSO M
Ġsl udge
hy th
ĠServ ice
h ai
ĠAg ency
ig uous
if ier
n es
ĠAd ministration
Ġregul ator
Ġag ing
Ġnear by
Ġalign ment
ace ous
ab or
Ġdes ert
ĠZ e
ar id
Ġadequ ate
N ase
Ġstr ict
Ġtra cer
Ġpre m
teb rate
h ol
Ġs ess
g ro
Ġsus tained
cl imate
Ġform ulation
Ġpurch ased
ĠWh at
Ġvalid ate
ĠP ear
Ġgen otype
ĠSt and
Ġplasm ids
en in
Ġprote ase
Ġvisual ization
Ġan onymous
Ġup welling
om orph
Ġdr ift
Ġquant ification
Ġt idal
Ġinhib its
Ġplan etary
ĠG AB
k en
Ġmagn itudes
Ġmicro organ
Ġsol ve
Ġfil t
ĠB esides
ĠBe fore
Ġun f
ĠT H
Ġm l
Ġdes ired
Ġcomplic ated
ĠG S
Ġmin ing
Ġprom ising
Ġ $
ĠD ist
Ġtransport ation
Ġcomplement ary
Ġembed ded
Ġol der
ĠMountain s
ĠN T
Ġmod est
Ġremark able
U T
ĠR A
ĠAM OC
Ġpolym orph
Ġdecl ines
p an
u ff
ynam ics
Ġatt ached
Ġdram atic
aver age
ix ed
Ġdeb ris
Ġcre ating
Ġdrug s
ĠH S
Ġha pl
pl and
ðĿĳ Ĩ
are st
Ġcap ital
um ing
Ġin n
i et
Ġcir cular
Ġsp an
% ;
B E
ĠSST A
Ġc is
ĠS ant
ĠL ow
Ġcogn itive
Ġ5 8
y re
Ġset t
Ġdisc overy
car bon
Ġpers onal
s in
ĠR am
Ġ198 5
t agged
Ġg ave
Ġunderestim ated
Ġfig ures
rog raph
Ġentire ly
Ġanaly sed
Ġfrict ion
Ġf illed
Ġl ic
Ġconcern s
ĠF uture
ĠR h
Ġasymmet ry
Ġbehavi our
Ġrobust ness
ill ion
Ġevent ually
ew ise
com par
ĠBe ijing
Ġent ropy
Ġde forestation
ĠS PI
Ġcomple ted
r ations
Ġstakehold ers
Ġper ception
Ġem er
ĠW il
Ġcycl onic
t est
Ġrein for
âī ¥
P ro
Ġbroad er
Ġwrit ten
Ġd ye
Ġun changed
Ġinf ections
Ġgeneral ized
Ġendot helial
ff l
Ġpass ive
Ġout break
r b
Ġemit ted
Ġra b
echn ology
g ly
exp ected
Ġant icip
ĠSam ples
ðĿĳ ħ
fact or
ĠO A
ĠSw ed
Ġinvas ive
ocyt osis
w t
ĠInd ex
c hemical
be an
Ġchromat ography
ĠM R
ĠF in
Ġun ivers
Ġgra y
Ġinstant aneous
ĠV E
m aking
Ġfour th
em ia
ĠV er
Ġab rupt
Ġpur ification
N o
ap ses
P E
Ġhe avi
âĪ ŀ
Ġprecurs ors
Ġsuper ior
ĠG L
Ġinterf erence
Ġnanop art
ĠExp ression
Ï Ĩ
Ġbur st
C G
th rough
Ġn est
l ar
Ġ :
omp ass
in ate
ĠM ark
Ġvis cos
y ing
Ġsubt ract
Ġtrans plant
ia e
ĠÂ ·
ĠS um
Ġpaper s
Ġassess ments
Ġcomput er
Ġplant ations
Ġpre l
Ġrele vance
ot ted
Ġp or
Ġas ked
Ġhydro d
Ġfertil ization
Ġem ergence
ic on
it o
Ġcardi ac
L L
t arget
ĠCh ar
Ġex on
op o
Ġit em
Ġpolit ical
a j
t emperature
Ġcomput ing
Ġsurpr ising
Ġintens ive
ine ering
Ġgr ants
Ġc oc
ĠP t
Ġsupp lied
box yl
Ġres usp
Ġcondition al
mit te
ĠChan ges
Ġspatiot emporal
Ġchlor ophyll
ĠC le
ro xim
Ġprotoc ols
rop ics
Ġinteract ing
Ġhem isphere
in ery
ĠPh il
Ġquant um
teb rates
ĠT ibet
Ġed ges
o cean
Ġ5 7
omet ers
Ġread ing
le ep
CA T
Ġcounter part
Ġord ers
ĠA uth
Ġeas y
Ġact ing
Ġresol utions
Ġhighlight s
ĠT A
ðĿĳ ĺ
R H
Ġforest ry
et heless
ch ain
ðĿĳ ĥ
Ġindirect ly
Ġbi ology
c alled
Ġshel l
ari o
Ġoptim um
Ġden ote
Ġpredict s
Ġreview ed
ĠÂµ M
p a
Ġdisc overed
oly sis
Ġmut agen
Ġin activation
Ġinf rared
her ical
ĠPen insula
Ġthermoc line
ress ions
Ġcan onical
ĠR ed
Ġv ic
Ġnort heastern
ĠN PP
ot o
Ġtra ct
Ġa f
Ġpoint ed
om ycin
Ġe ye
Ġg aug
Ġenc ompass
trans fer
Ġintrodu ce
Ġrec ru
ĠB M
G rant
ĠW nt
Ġpolar ization
Ġter rit
ĠM HC
Ġfilam ent
Ġdis ruption
ðĿĳ Ĳ
Ġa ware
ple x
ian a
ĠF ellowship
Ġmedi ate
Ġred ox
Ġis lands
Ġinvent ory
Ġvi ability
Ġpr ivate
ĠA er
Ġal igned
Ġver tically
ĠS urface
Ġsqu ares
Ġdiff us
u ge
Ġassemb l
Ġmod ulate
Ġexcess ive
ĠAustral ian
an ine
Ġwid er
ator ies
Ġimp osed
olog ic
Ġatt ack
ifer ase
Ġres ist
Ġmanag ed
Ġenc our
Ġinc ons
Ġa ud
om ial
m b
m at
Ġsc anning
In vitrogen
âĪĴâĪĴ âĪĴâĪĴ
Ġcal c
ĠS iber
D e
Ġ %
ĠG A
Ġexcl usively
Ġst ro
Ġaggreg ate
ĠE B
Ġre ly
) âĢĵ
Ġmaxim al
r h
ðĿĳ Ŀ
Ġs a
Ġselect ivity
ĠIt s
Ġf ruit
Ġsol ved
ward s
R M
m g
Ġexam ination
k t
G O
Ġcl ock
Ġconduct ance
ĠR o
Ġgen otypes
Ġdownsc aling
f ort
ĠSm ith
Ġaccel eration
r un
Ġmod ules
n i
ores cence
rain ment
K E
Ġenhan cing
ĠG ST
Ġnight time
Ġbe g
Ġalg ae
Ġwatershed s
Ġupd ated
Ġmin us
Ġbar riers
Ġd ried
Ġco herent
Ġincorpor ation
Ġdomin ance
: :
Ġherb iv
Ġline ages
ĠL P
+ )
ĠIn f
Ġhyp ox
for ward
ĠF re
Ġaim s
Ġsymmet ry
ĠM ad
Ġteleconn ection
er b
Ġr ip
Ġclos ure
Ġd ashed
ester ol
Ġphen otypic
ĠWhe reas
Ġautoc orrelation
ro id
Ġbaro clin
ĠF ac
overn ment
Ġle uk
Ġj ud
Ġfl ies
ĠS EM
Ġex ogenous
our ces
ch o
Ġoverla pping
Ġ18 0
Ġl ies
Ġd s
Ġb are
Ġequ ipped
ater nal
Ġstem s
) +
Ġtrigg ered
Ġgovern ance
an cing
Ġch imer
N a
Ġwavelength s
ot a
ĠÎ µ
Ġdrop s
Ġchlor ide
ur t
Ġelectron ic
Ġcytok ines
Ġfluctu ation
Ġsequest ration
ic ated
ĠRNA s
Ġgener ates
Ġpl aus
Ġpartition ing
Ġenc oded
Ġoff ers
E qu
G D
ar ant
Ġfix ation
Ġdegrad ed
ĠS oci
elect ric
ĠC as
d ies
Ġb ubb
ac char
Ġapp reci
Ġhem isp
so il
Ġimp lying
ĠECM WF
Ġtor que
ĠL ik
ot on
Ġmicroorgan isms
Ġirradi ance
ĠGener ally
Ġdiscr imin
ĠG PP
Ġemerg ing
H s
îĥ¶îĥ¶ îĥ¶îĥ¶
Ġback bone
Ġmob ile
O Cs
o or
Ġmor ning
ĠO R
Ġquant itatively
199 7
Ġviscos ity
Ġ nd
ĠH ep
id ation
ĠIn vest
Ġcompet itive
ing ton
Â° ,
ĠD P
Ġty ph
Ġlab or
Ġmo vements
und er
m ethyl
co upled
ĠAn g
k ey
Ġconcer ning
ec k
I G
ĠQu ant
ĠSch ool
end s
Ġmult ip
Ġde formation
Ġp il
Ġm il
Ġex haus
ĠP BL
cer ol
ĠH g
Ġcatch ments
ĠTh ird
h and
ĠF T
am ma
ĠA NN
roxim ately
Ġelong ation
Ġfilter ing
t reatment
Ġcl one
Ġps ych
ĠWe ather
ĠT i
Ġbroad ly
av en
Ġmo unt
Ġm urine
O X
Ġcont rary
cad ian
Ġm ism
Ġtop ographic
Ġperiod ic
ĠB u
Ġview ed
ĠU T
Ġdi oxide
Ġens embles
Ġult ra
Ġdem ands
Ġmat ched
Ġsequ enced
s qu
Ġexper t
Ġt RNA
E E
Ġcoord ination
Ġc os
Ġas c
Ġtask s
ĠD ec
ĠP ort
ffl ffl
ace ae
ĠSe qu
def ined
Ġhypothes es
ĠG IS
ĠSupp orting
Ġsk ew
Ġon going
Ġpul ses
Ġphosphory lated
Ġfocus ing
Ġsc an
t ice
Ġstrat ification
ĠR OS
ĠBay esian
Î ¾
Ġmunicip al
st ep
d ict
l as
Ġacid ic
ac ial
Ġat om
ist ically
gen eration
ĠB el
Ġra ised
Ġw t
Ġsym pt
Ġdiscrep ancy
Ġpower ful
G L
Ġste ep
Ġelse where
Ġar rest
Ġsystem atically
Ġpict ure
ore g
Ġreprodu ction
av ed
Ġreflect ance
am a
Ġdescrib ing
ĠO T
Ġhippocamp al
âĢĿ .
ĠSt r
atur ated
n c
Ġgo als
ĠP at
Ġmet a
ĠM olecular
Ġtimes cale
Ġglac ier
Ġcorrect ly
ĠM ass
Ġch ose
ĠCO D
pec ies
Ġc ultural
Ġopportun ities
Ġburn ed
Ġrestrict ion
Ġclim ates
k es
ĠStatist ical
Ġlangu age
Ġrot or
Ġprolong ed
Ġst ack
. );
ðĿĲ´ ðĿĲ´
Ġhem at
Ġreact or
ĠD ataset
Ġfocus es
ĠMER RA
Ġcolon y
ag o
c ycl
qu ality
Ġcas pase
Ġb ath
Ġpotential s
Ġ ur
Ġsymmet ric
al t
ĠB ank
ĠL R
m id
ĠS ignificant
Ġgra zing
Ġfil m
Ġcav ity
Ġgu ide
at ial
Ġgener ator
est ock
sh aped
Ġles ions
Ġ8 00
Ġinvol vement
Ġw omen
Ġhybrid ization
c n
Ġlat itudinal
ĠCom mun
ul ing
Ġp ow
Ġus age
ĠI OD
Ġmat ching
ĠHad ley
Ġchrom osomes
ur is
ĠCh ange
Ġv ill
here nce
Ġclaim s
Ġal lo
Ġpreced ing
Ġrespir atory
ĠH o
Ġcur v
Ġhel d
Ġpublic ations
ĠO RF
Ġs ides
Ġa part
at um
Ġw rote
Ġsyn erg
c ade
Ġlink age
Ġs pp
Ġover t
Ġindic ative
ĠP CA
Ġar row
Ġmixt ures
ty p
Ġty rosine
Ġshe et
Ġin land
ĠB rief
Ġfeas ible
roc ytes
Ġsnow fall
ir ation
Ġreason ably
ĠS pect
Ġun us
ĠPub lished
Ġm V
Ġbio ge
Ġre tain
Ġinter view
y th
ĠB T
Ġmid latitudes
ĠG o
Ġ198 4
ig her
Ġs leep
il ation
âĢ ĭ
) âĪĴ
Ġstabil ization
Ġstri king
iss ion
Ġco pper
L i
at ellite
ĠG al
Ġcytok ine
ant h
Ġcomp rom
Â ¨
Ġro of
Ġun like
Ġd ro
ĠN M
P s
Ġval ley
ĠG ra
Ġhomolog ous
ĠC V
c ons
29 3
op ulation
Ġse w
Ġbi ased
Ġan aer
b lue
Ġmo ved
ci ples
ĠT E
ter ior
ĠI r
Ġdecl ined
Ġprel iminary
Ġtransf ection
ri pt
Ġ6 3
ĠP al
ell er
Ġfron tal
Ġl um
Ġr ational
Ġradi os
ad ow
ĠPl an
dom ain
Ġexc it
Ġelimin ate
Ġman gro
v ial
Ġpart ners
ĠT emperature
Ġisol ates
Ġcomp an
ĠC am
Ġcomp artment
Ġcontrol ler
Ġinc idence
Ġparticip ation
ber t
Ġbelie ve
Ġmes oscale
Ġecon om
âĢ ¢
im a
A t
Ġcompar ative
ĠRegard ing
ĠCont rol
Ġpers on
ro gen
Ġstart s
l ined
N e
Ġh urric
Ġsh ock
ol a
Ġmicro tub
ph a
Ġy ellow
ar st
ffect ed
Ġdam s
Ġst ays
Ġf o
it ivity
Ġdiff use
Ġv ast
ich i
Ġf r
Ġcamer a
Ġpock et
Ġin ert
Ġl uc
ĠC AP
Ġsuggest ions
inf lamm
ul ates
ver sion
chan ge
Ġcir cadian
Ġinterp olated
ch a
Ġv ital
Ġvic inity
ĠF u
form ing
ĠFore cast
Ġb inary
ĠC ESM
ĠP ET
Ġsimilar ities
R e
ĠA A
d et
id den
Ġreplic ates
ĠI SO
Ġcult ivation
V E
id er
ĠA ward
ĠT er
Ġimpact ed
P O
Ġp ale
Ġbe et
ĠH EK
Ġt t
Ġb ott
Ġd ors
ĠK el
v ation
Ġfilt ration
VI D
ĠBl ack
Ġarch ae
pept ide
m i
ĠPro t
Ġfish ing
Ġwinter s
Ġconfirm ing
Ġt ended
g rowth
on om
Ġin active
Ġfunction ally
in ement
v a
Ġfoot print
ĠBrief ly
Ġse greg
Ġcon ifer
Ġcod on
ĠL U
Ġregard ed
Ġad ip
Ġimmun opre
ĠN MD
Ġserv es
ĠB ro
mitte e
p y
P AGE
act ivity
ĠH ist
art ments
Ġr hyth
r ise
Ġthin ning
Ġsc ient
uris dict
Ġammon ia
/ (
Ġhist ogram
ub lished
c loud
Ġant is
xim um
Ġtri ang
Ġsil encing
Ġz on
Ġsplic ing
ĠT ime
Ġepis odes
Ġnot ion
Ġweak ened
Ġintens ification
Ġinc om
Ġisol ate
ĠNiÃ± a
Ġcar cin
reg ular
cept or
c is
) ],
Ġmet eor
ĠT a
sc atter
Ġabove ground
Ġparameter izations
ĠmRNA s
Ġt ension
ra g
Ġbrid ge
Ġweak ly
Ġprev ail
Ġa ges
Ġtrans membrane
Ġk id
ĠAd v
ĠB R
other mal
âĢ ³
Ġvers ions
Ġunt reated
Ġb und
Ġsh apes
Ġl ith
ĠE V
aro se
Ġ ://
Ġne arest
ĠS yn
cl im
Ġ( âĢľ
ar bon
Ġrare ly
Ġocc as
ðĿĳ ĵ
Ġj urisdict
is ot
ĠS igma
Ġ âĨĴ
id ed
Ġ6 2
Ġsubst ances
if act
Ġ198 3
Ġintegr ity
ylo id
ĠL L
ĠMic ro
ĠT ables
ĠC B
res istant
compar ison
Ġy ou
ĠPro f
Ġoper ated
Ġm yc
ðĿĳ ľ
w a
Ġ6 8
Ġwall s
ig ation
Ġan not
Ġo ste
f rost
at ible
plic ity
Ġguid elines
Ġquad r
rain ing
Ġp ent
H L
ĠT OA
ĠT RP
Ġphys ically
he red
ĠM t
p ressure
ock ing
Ġin ject
d a
Co V
Ġaccess ible
Ġhyd rop
Ġfibrobl asts
ĠM art
ox y
ĠK it
Ġsu itability
Ġmo ves
f irst
ĠK ey
y a
Ġvib ration
ĠAltern atively
Ġox ide
P h
Ġro ut
Ġconform ations
ol ia
re a
Ġlip ids
Ġanalog ous
Ġassum es
Ġcount ed
ĠM ac
F S
ĠG O
Ġsyn apses
ĠThe rm
ĠP G
Ġt rophic
am ple
H S
c hem
Ġindividual ly
ĠM Y
Ġmechan istic
Ġc ation
Ġrest ored
Ġden oted
âĮ ª
J D
ĠMon te
u pp
Ġmach inery
âĪĴ ,
Ġoff shore
su pp
a ffected
ĠN etwork
Ġp ain
Ġplay ed
Ġro ute
Ġvi able
Ġdiagn ostic
ĠSW AT
Ġdissip ation
Ġprov ed
Ġg iving
Ġpromot ers
Ġtra ined
Ġgro ss
Ã ¤
Ġref erences
Ġmicro ar
Ġconfir ms
og onal
ĠP i
Ġon d
Ġ20 50
Ġimmun ity
t ze
ire ction
Ġbox es
Ġpro ceed
er n
ĠBiot echnology
v an
H Cl
ĠAr ch
Ġselect ively
Ġhe me
ĠM AT
Ġreconstruct ions
Ġcho ose
Ġimpro ves
ĠE duc
Ġpreval ence
i ol
ĠAuth or
Ġm ild
Ġn om
Ġan ch
ĠO s
Ġstress es
Ġmagn et
M e
ĠB A
Ġcop y
ĠPear son
Ġdifficult y
Ġchol esterol
Ġo rograph
cat enin
zz y
Ġkin ases
Ġorgan s
Ġins ects
ch lor
Ġmat rices
ĠK u
Ġconsum ed
Ġcorrel ate
Ġaut ophag
Ġfac ility
ov irus
ĠCCS M
of lu
Ġhomeost asis
u ing
Ġs ap
Ġsc aff
ĠQ BO
ĠSoci ety
Ġdra g
Ġaff ili
ask a
Ġg ate
un a
Ġcompens ation
Ġper ceived
Ġlat tice
Ġapparent ly
ĠYang tze
Ġed dies
Ġconstit u
Ġs hed
ad en
Ġ5 9
ass ium
F R
Ġgrate ful
Ġenzym atic
ĠFran ce
tern oon
Ġst iff
ĠS ol
Ġrecogn ize
Ġpass age
it ime
ĠU l
Ġfir ing
us ing
Ġbir th
Ġliv estock
ĠK ing
Ġexperi ences
st age
Ġr ings
zym e
Ġefflu ent
Ġd rier
Ġins erted
Ġinter cept
s um
Ġcurv ature
Ï Ī
ĠD OC
Ġdef ault
Ġnic he
y te
Ġgenes is
Ġenerg ies
Ġprov in
Ġf its
res id
op ath
s he
vel ope
Ġresidual s
d iff
ies el
ang l
Ġunderestim ation
Ġnorth western
Ġaggreg ated
ĠL ag
Ġabund ances
Ġpath ogenic
Ġaccept able
W e
Ġdist al
Ġp et
Ġsug ar
Ġcarbon ate
Ġref ract
ĠM i
ĠH M
ĠIt aly
Ġreflect ivity
Ġden itr
ĠR ich
Ġsew age
Ġpenet ration
Ġb illion
Ġfilam ents
ont in
Ġqual itatively
p rodu
t ra
Ġ6 6
199 6
Ġmult ivariate
Ġgen us
Ġexact ly
Ġsupernat ant
Ġz inc
Ġplant ed
Ġ1 10
Ġhind cast
ad ian
er ts
ot ion
ĠM CS
ĠP resent
2 50
un it
Ġclos est
Ġoccup ied
Ġprin ciples
ma frost
valu es
ĠTai wan
ĠM ann
Ġth ous
ell ar
Ġemerg ed
Ġund erestimate
is ely
N E
Ġw ww
ĠT e
Ġpass ed
Ġmult im
Ġ9 8
ĠTechn ologies
ic ed
Ġcomp act
ps in
Ġj unction
Ġplaus ible
D O
Ġc ub
Ġcom m
Ġplate au
Ġleak age
i us
i ef
ĠÏ ī
one y
ass emb
Ġsol ub
Ġextra p
Ġsh ip
ĠA ver
Ġrep ress
lo ad
Ġpath s
Ġinter medi
Ġtransp iration
imet er
ĠT ex
Ġge ometric
Ġgener ations
Ġfair ly
ĠRes ources
ortun ately
Ġloop s
p ack
ot he
re w
Ġhom ology
g u
om on
Ġspectromet ry
ond ition
Ġshar ing
Ġflo or
Ġo pin
Ġar m
ĠSupp lementary
13 0
Ġth or
ios ci
Ġpl aces
Ġdifferent ially
ator ial
Ġdef ining
Ġex clude
Ġseed ling
Ġanaer obic
inflamm atory
Ġresid ents
Ġes c
b ar
Ġcontribut or
ĠR CM
Ġinter vention
Ġind oor
Ġ6 7
c ut
ar ity
N CAR
ct oral
ĠCompar ison
ĠTR MM
ĠC are
) âĢĶ
id ase
ĠK im
ĠMed icine
Ġoper ate
ins on
ĠS CS
ul us
av ail
Ġresusp ended
Ġhippocamp us
Ġvess els
k o
Ġar ises
Ġconver ter
Ġprot ective
Ġhel ps
Ġperman ent
Ġsuper vision
ĠL H
AC S
Ġprov ince
Ġland s
v o
Ġpref erences
Ġstud ents
Ġhydrod ynamic
Ġsub m
Ġads orb
hel ium
cent ral
Ġgu arant
Ġdig estion
re al
me as
Ġmountain s
Ġreag ents
ĠP oly
Ġsc aled
Ġim mediate
ĠSa hel
Ġju ven
ĠED TA
yl ene
Ġmut ated
T F
Ġcaus al
Ġimm ob
l ines
ĠS r
Ġgradu al
ĠL ower
Ġ( ~
Ġcompris ed
ar ith
cul ation
Ġbec oming
Ġch ance
on y
ch i
a ph
h t
ĠPredict ion
y es
Ġbelie ved
od erm
Ġab ol
Ġtrans duction
ĠSp ain
Ġir regular
Ġacceler ated
Ġfragment ation
ĠMeas ure
le af
Ġsm oke
teg rated
B B
ĠAt t
ĠG DP
Ġb ark
Ġir re
ĠAM O
Ġdendrit ic
ĠTibet an
d c
Ġp un
Ġdischar ges
ok ing
Ġanticycl onic
M C
AC E
as ing
ĠReg ional
Ġhost s
Ġins ignificant
D s
Ġa ug
Ġubiquit in
ĠC Y
Ġ1 40
ang er
Ġdifferenti ated
ĠM G
Ġvisual ized
rep resent
Ġcol ocal
ste in
Ġcentrifug ation
Ġeduc ation
Ġelimin ated
Ġk il
ĠE sc
ib ilities
sk i
Ġl ob
ĠC ys
Ġdiab atic
v ari
Ġreson ance
ay lor
Ġheavi ly
Â° âĢĵ
Ġper mafrost
Ġadv ice
li ers
Ġless er
Ġen velope
Ġcas cade
Ġconf ocal
Ġin und
Ġinc ent
Ġdem ographic
U s
Ġj o
ĠSystem s
Ġorgan ism
ond s
ĠH LA
Ġd oses
Ġm T
Ġoper ator
Ġrep roduced
Ġcur ation
ĠC p
Ġregen er
âĢī Ċ
id ae
Ġdecid uous
Ġben ch
Ġprec isely
Ġobtain ing
Ġimp ed
ous tic
Ġun expected
iv ered
Ġmod ulated
ĠJ iang
Ġpl ans
Ġproport ions
et ric
ĠNA SA
Ġconstit ute
Ġsignature s
ĠL S
Ġpreferent ially
12 5
phosph ory
ol ic
Ġvacc ine
ĠÂµ L
Ġcircul ations
Ġresol ve
en vironment
Ġeukary otic
oot st
Ġ1 01
Î ½
Ġb le
Ġconsid ers
ĠC ase
ðĿĲ ·
ðĿĳ ¢
Ġoff spring
Ġharm onic
Ġrip arian
al am
L e
ĠA V
Un iversity
Ġcyt os
ĠA ER
ĠD BH
Ġbal anced
L F
vent ions
l ived
Ġload ed
Ġrepe ats
Ġsubs idence
ĠST AT
Ġec ology
Ġpollut ed
ĠNon etheless
ĠW P
act iv
Ġproper ly
Ġsp ik
ran ged
ind ustrial
Ġaccum ulate
Ġsevere ly
Ġg p
Ġolig onucle
ĠM ice
Ġphen ology
Ġad verse
osp ital
Ġdomin ate
b ons
Ġb all
Ġmanag ers
Ġcut ting
N G
Ġorig inally
con jug
ĠCan adian
Ġglutam ate
Ġar bit
Î ©
ĠSubsequ ently
Ġattenu ation
a el
Ġsk y
Ġcapt ures
Ġregul ators
CM V
Ġsubset s
ĠEduc ation
ĠLik ewise
Ġsouth western
ĠL ys
Ġart ifact
Ġz o
ĠLar ge
Ġdamp ing
Ġfunction ing
Ġsoci ety
Ġar rangement
re nces
ĠCom b
ub lic
ol ine
Ġ6 1
Ġcut off
Ġdep ression
b u
le ft
vi e
ĠA CC
ĠEng ineering
Ġaf ternoon
Ġmy osin
Ġ ure
ĠCh ang
ĠCO VID
Ġph armac
Ġfraction al
Ġmetabol ites
ĠV alu
Ġattribut able
ĠN SF
Ġide as
L s
Ġsp arse
ĠC ount
Ġre ward
am es
Ġint ake
Ġarg ue
d ry
Ġcomp ares
âĢĿ )
ian ces
ĠH a
Ġprevent ing
Ġass ist
ĠT RA
M E
i ated
Ġres idence
ĠD isc
D F
at tered
Ġm ir
Ġh idden
âĪ ĩ
ment ation
Ġag o
ðĿĲ ¸
Ġmutagen esis
Ġam yloid
Ġderiv ative
Equ ation
y d
N ational
ĠRNA i
Ġpot assium
Ġse ek
er a
Ġar ising
Ġrece iving
199 5
Ġcolon ization
Ġ2 100
Ġcontin ues
AS M
Ġstom atal
1 000
ĠO P
at uration
ĠI d
Ġent rainment
ĠF c
p redict
Ġcan cers
ĠGen eral
ĠCh l
fam ily
Ġrid ge
ĠStand ard
Ġtax onomic
Ġpropag ating
al dehyde
ĠL in
Ġrain water
Ġmitig ate
Ġrever sed
i en
199 0
Ġmulti pl
Ġirradi ation
ĠF ox
Ġvir ul
Ġdef ense
as ome
ĠW ood
Ġparticip ate
Ġcoll agen
so ur
Ġown ers
ĠC AR
Ġmot ions
Ġqu art
Ġsy nd
ĠP lant
Ġinter ventions
Ġdel ine
Ġtop ology
ĠTex as
Ġegg s
ens itive
ill in
Ġdepos its
ĠW S
cor rect
Ġluc iferase
Ġref lection
Ġst ere
Ġregul ations
Ġdisapp ear
Ġ {
c s
Ġex ec
IR S
em por
ĠT ra
Ġdel ivered
Ġreplic ate
Ġnam ed
ĠC ore
ĠC K
Ġsp anning
W M
G B
ĠT reg
rolog ical
Ġcir cles
Ġp anc
Ġinvestig ating
ĠNO x
Ġcir rus
Ġrel ies
Ġfl ag
H O
n ut
Ġweight ing
Ġcell ulose
ust ered
Ġgly cerol
un ctions
Ġstrengthen ing
ĠP ost
ĠE astern
pl ain
Ġacet ate
Ġbu ff
ĠT O
ĠO D
ĠSt ation
ĠDav id
Ġhe pat
Ġf og
Ġselect ing
A n
00 5
ĠTy pe
let on
ĠCo ast
Ġincorpor ate
B io
alk er
eg a
Ġfol i
per iod
ol uble
Ġrab bit
Ġexplain ing
Ġderiv atives
Ġdisord ers
Ġoccup ancy
ĠT yr
Ġoverestim ated
Ġso ught
Ġprior ity
g n
Ġa fore
ĠO M
Ġnanopart icles
c ro
Ġg ut
Ġunder t
Ġaccom mod
ag er
ĠL ands
i rable
Ġplant ation
Ġa romatic
Ġeffici encies
ĠHu ang
Ġcol der
U V
Ġper p
ell ites
Ġ10 4
w ork
Ġrel ate
hel ix
ES S
Ġdiscrep ancies
Ġf ly
Ġorth olog
Ġrece ive
Ġpseud o
Ġsusp ension
it t
ĠU se
Ġdis ag
Ġdifferent ly
Ġdors al
Ġenab led
Ġc AMP
ĠS N
Ġindu cing
ur ally
Ġcoll apse
Ġd iesel
i eth
enz a
ĠUn ion
Ġit i
Ġtub es
Ġinc oming
S m
Ġgly cos
Ġs enes
Ġafore mentioned
ĠF orm
ĠB re
Ġhydrop ower
Ġev id
Ġs aw
Ġorth ogonal
Ġsign s
ĠLe e
Ġinter decadal
Ġmod ify
L T
il ic
ĠAg ain
k b
ĠU pper
Ġsp herical
Ġdiff raction
Ġmountain ous
ðĿĳ ¦
Ġrecording s
ran ce
Ġsp le
Ġterm ed
ĠAn imal
Ġk Da
Ġpromot ed
Ġam ph
our nal
Ġcompris ing
ich ia
Ġadd itive
i ra
d irect
ĠMg Cl
ha o
Ġcyst eine
Ġm os
Ġmet er
v as
Ġarg ued
Ġaffili ations
K K
Ġc red
Ġsp ike
Ġnot ably
ĠS NPs
Ġlign in
Ġdimin ished
po ints
Ġprior i
Ġst op
Ġb ins
ĠA v
ĠStud ent
ustr ies
Ġbur den
ig ens
l ag
A ld
D D
Ġ9 4
Ġver ification
duct s
Ġdeple ted
e ven
Ġt ribut
ĠC RE
Ġideal ized
ĠA B
Ġterm in
ĠC X
Ġge ological
ĠR ain
yn olds
Ġhar bor
ĠL E
Ġc ues
Ġaccess ed
s pect
Ġradi o
ĠP age
ĠDiff erences
Ġcop ies
ash ington
Ġbio char
IN G
âĢ Ĭ
ĠHe La
ĠH am
Ġdivid ing
Ġaqu ifers
Ġwith d
ĠD G
ĠIn str
ud den
ĠM B
Ġred und
Ġmet ers
Ġelectr ons
Ġjurisdict ional
Ġsuc rose
ĠFour ier
Ġassemb led
Ġstim ulate
Ġspectromet er
ĠIP CC
AT A
Ġprev ents
ex ts
arv ard
Ġgen etically
10 5
be it
Ġproxim al
lo op
âĭ ¯
are n
ĠS NA
oss ible
Ġa z
ĠR uss
Ġprevent ed
oz o
Ġbi otic
Ġglac ial
Ġindic ation
ĠÎ ·
Ġmaxim ize
S i
l en
Ġconsum ers
Ġstabil ized
ĠD Cs
weight ed
ĠK Cl
ĠH L
Ġon c
j unction
ot or
âĦ İ
B r
ĠA E
Â ´
Ġiso forms
Ġv ide
Ġfall s
Ġfoc al
Ġle aving
ĠM edi
ĠR ab
ĠCar lo
âĮ ©
Ġdi ameters
Ġpor osity
Ġmar row
ide cad
Ġsyn th
Ġrep ression
Ġf inger
Ġlog arith
Ġsubstit utions
Ġdetect ing
Ġpy ro
ĠGAB A
Ġoptim ize
ĠCom put
Ġ19 61
idecad al
Ġconf er
Ġppb v
Ġoccur rences
Ġopp osed
Ġoverestim ation
ĠI O
Ġr RNA
ĠAdv anced
Ġto m
E q
Ġcom ing
et ies
Ġsc arc
Ġan terior
i ab
ĠA ut
Ġcompan ies
ĠM ax
l s
Ġf ate
ĠT s
Ġph age
Ġimag ery
ĠY ork
Ġbeg ins
Ġm uc
Ġagon ist
. .
Ġdiv ergent
Ġang ular
Ġpair wise
Ġintest inal
Ġcorrel ates
Ġlink er
Ġsto ichi
ed om
Ġexhaus t
ph al
P K
r aries
Ġcompris es
Ġh ol
m M
00 2
Ġdisc ontin
Ġirrig ated
Ġor b
Ġr ating
ĠH F
Ġm aternal
Ġ9 7
Ġout do
ĠN Y
Ġker nel
Ġkid ney
Ġo sm
t d
Ġtrunc ated
Ġelectro static
Ġcoordin ated
Ġdomin ates
Ġelectro des
Ġshif ting
ĠER K
Ġan n
her ichia
Ġk b
ab ric
Ġinstall ation
Ġ7 8
Ġb ootst
Ġint ron
ol er
T s
ĠO pt
ĠPub lisher
Ġfram es
Ġlead er
Ġhydrolog y
ĠN an
ĠT op
Ġestablish ing
Ġsp aces
Ġcult ivated
ulf ide
Ġconserv ative
Ġbaroclin ic
Ġfu zzy
end ence
Ġhorm one
O L
Ġcl ustered
Ġro ads
Ġpercent ages
ĠAntarctic a
ĠY ellow
ĠBi ological
Ġcooper ation
Ġintegr ating
ĠB ur
Ġdesign ated
hen g
r s
am ino
ĠL ast
Ġcho ices
bl ack
Ġunp ublished
ĠT B
G H
Ġab iotic
Ġsur ge
Ġlar val
Ġexcl usion
Ġfract ure
ĠA ND
Ġrecon stit
ĠCommun ity
Ġanticycl one
Ġod or
- (
C om
Ġm Ab
n an
am i
Ġb lo
U R
Ġion ic
Ġmeth anol
rang ements
Ġbus iness
ots p
] ),
W A
Ġ7 7
10 4
os al
Ġprof ound
Ġoxid ized
Ġincom plete
plasm ic
ĠE X
er als
Ġinfect ious
Ġto wer
Ġs udden
ĠI ll
aw a
Ġco in
Ġret inal
Ġsediment ation
U N
Ġrem odel
amet ric
Ald rich
Ġsc hed
Ġorient ed
Ġcytosol ic
Ġdenitr ification
id in
Ġs orting
p ath
Ġtr ip
Ġp it
Ġs lices
ĠM EF
t ally
Ġwe bs
Ġpresent ation
Ġm ess
ribut ed
ĠIn nov
Ġneut roph
Ġh ole
Ġsystem ic
E l
Ġyield ing
Ġrock s
o ption
Ġnucle otides
ĠD ef
Ġenab ling
ere s
n ary
ðĿĳ ģ
J une
Ġ Ġ
Ġl act
Ġpoly n
10 6
CA G
Ġdr ives
ĠM SE
a qu
ĠMid dle
conjug ated
Ġco herence
Ġrec re
ĠB MP
ĠS he
Ġtrans gene
Ġsm art
orth y
Ġtight ly
A g
r ative
Ġg amma
if th
Ġred ist
Ġpropag ate
Ġbiot in
Ġimportant ly
Ġcar boxyl
ĠY et
Ġunfold ing
ĠK ar
t z
Ġwave let
Ġaccom pl
an ford
Ġparent al
Ġtr iple
B ank
Ġle aching
ĠEsc herichia
on n
exp ression
Ġsh ore
Ġcol le
Ġitem s
u ber
ĠCl im
ĠSte p
Ġ( âīĪ
Ġalg al
ĠW ind
Ġl am
Ġactiv ates
r ink
Ġd edu
ĠF lor
Ġgroup ed
Ġenc odes
as ters
Ġbiofil m
Ġhydrog raph
rit ing
ĠV ol
Ġtun nel
ad o
Ġsp ot
Ġanc ient
âĢ² ,
ĠSe e
Ġstatist ic
Ġyear ly
id th
Ġdep art
Ġhe lices
Ġs s
Ġm olar
ĠM F
b ors
8 00
M ay
e fficient
ers ion
+ ]
ĠHep es
ree k
ĠE th
g a
Ġfre edom
ĠâĪ Ĩ
ĠAss ess
Ġly sis
Ġe ut
ðĿĲ ¼
ĠVE GF
Ġcomb ine
W D
ĠSt ruct
ell s
Ġcompos itions
C I
ant ed
iot ics
Ġresc ue
Ġpost trans
ĠR ight
lo x
Ġ16 0
l ocal
Ġtext ure
Ġres in
Ġrib osome
Ġm ating
id el
Ġhel ical
Ġupd raft
ðĿĳ Ļ
Ġgerm ination
Ġs omatic
ĠD F
Ġhierarch ical
co ated
Ġf ash
t es
ul um
Ġactiv ating
Ġrepresent ations
Ġb rought
Ġmanif est
w aters
ro ck
ole cule
r ition
ĠA DP
m elt
oph ore
Ġag ed
ef t
ðĿĳ ī
Ġparad igm
T her
od imer
Ġill um
e in
ĠP ur
Ġpop ular
Ġsympt oms
im en
Ġc odes
Ġf used
ry l
so uth
Ġab st
iv iral
ol in
Ġintermedi ates
Ġc rack
ĠO F
Ġolig omer
Ġdet ector
Ġ6 9
ĠB iosci
b ottom
Ġsp ots
y on
Ġem pt
pt ive
Ġorigin ating
PD B
ĠSAR S
Ġsu ff
Ġflow ering
Ġscient ists
Ġachie ving
R ad
Ġinv ari
Ġlys ates
Ġcyt otox
ĠR ober
Ġtop ic
Ġtra p
Ġradios onde
Ġg al
ĠS ens
Ġdep olar
Ġres emb
ĠP rior
Ġlog ging
ain e
Ġconv en
Ġcyt ometry
Ġphosphat ase
Ġinn ate
Ġdetermin istic
ĠM H
pt ic
Ġan isot
Ġal co
w in
Ġb order
Ġcontamin ants
Ġinstit utions
NO S
Ġhydrox yl
ĠMeth od
Ġm t
ĠCom mittee
ĠAl aska
Ġantib iotic
ĠâĦ «
ĠSout heast
qu ito
ym pt
ĠG PS
Ġstabil ize
Ġb ending
Ġbas es
b r
an ish
en ch
Ġhere after
Ġconc urrent
A d
ĠReg ion
Ġmet all
Ġabs orbed
Ġmult is
correct ed
Ġ1 30
eb ra
Ġfash ion
ĠÏ ĩ
Ġuniform ly
Ġbi oc
Ġn erv
O pen
ĠK a
Ġinstrument al
Ġtempor ally
Ġ8 7
Ġattribut e
t ailed
ĠC ru
âĪ Ĩ
E B
ĠAgric ulture
ÂłÂł ÂłÂł
Ġatt achment
w ester
ĠM er
ĠB SA
ĠS SP
Ġnot ing
Ġmod elled
ĠP le
enth ic
ĠF P
Ġpool ed
ig er
Ġsitu ated
h ang
Ġsc ar
Ġproduct ive
Ġsec reted
ðĿĲ ¿
Ġvess el
Ġlandsl ide
Ġpip eline
k man
ob s
ul atory
ĠBi ology
and em
Ġent ering
Ġans wer
Ġsim plicity
ĠP B
Ġreg ist
Ġparas ite
ĠU SD
Ġtraffic king
im ming
ĠL et
en a
Ġhom ozygous
Ġturn ed
ear ing
Ġinter mitt
Ġkind s
Ġb eta
Ġhold s
ĠR MS
Ġdistingu ished
Ġe cho
f ig
ĠCN S
b urg
Ġun less
Ġinc ident
Ġprov ision
Ġovert urning
Ġscarc ity
ele tal
ĠH igher
Ġdest abil
Ġcont exts
bal ance
C ont
Ġf ellowship
brid ge
S ch
ĠLands at
Ġind ustries
r p
ĠN W
ab out
Ġsk eletal
R MSE
Ġrequ est
z ero
Ġl ie
Ġbelong ing
Ġch aper
Ġde al
Ġcomp artments
Ġun affected
ĠCompar ing
Ġgrass lands
Ġparas it
ĠFR ET
strand ed
Ġd B
w idth
ine ar
Ġbench mark
Ġmot her
Ġdatab ases
Ġcoh ort
Ġstro ke
Ġp in
ĠL ight
Ġfarm s
k Da
Ġembry o
G lu
Ġorig ins
Ġ1 25
ĠSP EI
ĠOrgan ization
ak a
Ġlib raries
Ġincorpor ating
Ġmoder ately
Ġinf erence
Ġshru bs
pl o
ĠW all
Ġmineral ization
Ġar rays
az ole
Ġsuccess ive
Ġrest ing
Ġn ond
Ġreact ivity
ocl onal
Ġzon ally
trop ospheric
em at
Ġattempt s
ĠC CN
d ist
Ġrep et
ĠFac ility
ĠCh IP
Ġannual ly
Ġdiscr imination
Ġsat ellites
ĠY u
Ġwester lies
lect ive
Ġconsider ations
Ġdecl ining
Ġattract ive
Ġcare fully
10 3
Ġinhib iting
Ġres embles
Ġthor ough
r int
Ġinter s
Ġagre es
Ġunivers al
Ġdam aged
Ġres erve
Ġto day
ĠK e
/ +
d ensity
ĠCT L
ĠL A
Ġexplan atory
Ġprevail ing
bo hyd
ĠC ulture
ĠEuras ia
gan s
ĠR I
ĠC he
cri ption
Ġview er
Ġdet erior
ĠH B
ĠW riting
Ġrepl ace
Ġwhere by
ĠM AM
Ġhelp ed
Ġmult ic
b b
RA S
h l
m ar
Ġport ions
ĠG F
Ġp up
ĠM RI
ĠKel vin
hel l
Ġsh oot
ĠS l
Ġac oustic
ol it
Ġmin erals
U L
Ġh otsp
ĠM ur
Ġex cluding
Ġge omet
Ġper mit
Ġhe ct
Ġadminist ered
Ġk a
Ġmodul ating
C B
ĠCl ass
. :
ĠL M
n ull
po ly
oc occ
ĠD H
ced ent
Ġtwent ieth
ĠV an
ĠO ut
. (
Ġt ide
Ġvari ances
Ġchrom osomal
Ġsh o
Â µ
Ġp orous
ĠD EM
Ġs ul
Ġadv ances
Ġsc attered
Ġex erc
ĠNor way
Ġs ent
ĠW illi
Ġint ended
Ġtechn ological
Ġposition ed
ĠSO A
Ġalter ation
ĠM es
Ġpreserv ed
Ġ7 6
Ġtwent y
u ck
Ġr ub
Ġfall ing
Ġhypox ia
Ġact ively
Ġexhib iting
Ġm en
s ized
roph y
Ġremark ably
Ġintrodu cing
Ġreserv es
) ),
reg ions
Ġcentrifug ed
as hes
ĠS il
i ro
process ing
ĠE GFR
ys iological
ĠW alker
ĠAs p
7 00
Ġpl ast
A ugust
M RI
Ġexc ited
Ġbreak down
Ġtun ing
14 0
Ġhyd romet
Ġepid erm
r d
Ġdifficult ies
orad o
Ġvalid ity
N ov
Ġout lined
lim ited
ĠB rown
G CM
Ġconc rete
am ycin
Ġser ine
ĠCh rist
Ġbre aking
Ġcompens ate
ĠNot ch
Ġmicrob es
ĠI ce
ĠM E
im ethyl
Ġad option
ast e
199 4
Ġsw e
Ġturb ines
Ġg old
Ġcheck ed
ĠRe ynolds
Ġmim ic
Ġreg ressions
Ġrevers al
Ġreal ized
Ġep igen
res olved
ĠH IF
ĠR as
Ġe IF
row ing
Ġalter ing
Ġengine ered
Ġvirul ence
m ass
Ġp ull
ĠA ck
b oth
Ġgener a
Ġvirt ual
Ġact ors
Ġguid ance
ĠN AM
Ġmount ed
Ġsol ids
Ġmicro wave
Ġcollect ive
ĠS ah
ĠC hemical
Ġcor n
Ġiniti ate
Ġfacilit ates
Ġph ag
Ġpond s
Ġwindow s
18 0
M L
Ġbright ness
ðĿĳ ı
st one
ĠV is
âĢĥ âĢĥ
ser ies
Ġvent ilation
Ġwinter time
ĠN umer
Ġchemical s
G EM
Ġevid enced
ĠS han
ĠGe ophysical
trop ic
z hou
al d
Ġele gans
t wo
Ġnotice able
ĠC s
ne ur
ĠD T
abil istic
Ġcor ro
Ġmangro ve
aly tic
ĠM AR
par ametric
Ġthank s
ĠF ive
ub e
Ġover view
ĠRep ublic
ĠS us
l inking
ĠA qu
Ġconst rain
, [
Ġpred ators
vi an
m ers
Ġcap abilities
ĠD en
ĠW ashington
ĠG FD
G al
Ġmark ets
Ġrespons ibility
Ġmicroar ray
Ġphys i
ĠP f
opre ne
1 12
Ġsol ving
opl ankton
ĠR ock
Ġmos quito
ia o
Ġdiff ering
ili ary
Ġcumul us
end icular
um etric
Ġb ra
Ġwild fire
g luc
ĠInd ones
am ples
ĠA Q
Ġsc al
Ġglob e
Ġequator ward
Ġ7 3
ĠF I
Ġpo res
Ġrot ational
Ġfarm ing
Ġelucid ate
b in
iz ers
EN SO
pe ak
Ġenc ode
ĠL aw
ĠR ob
ann ed
effect ive
ĠE st
Ġmi RNA
ard ed
Ġfl av
rob ial
Ġse ar
obl ot
ĠCon f
com it
ĠLab or
Ġstrat iform
Ther mo
Ġde le
ĠSant a
z a
Ġv it
ĠT ropical
pl ot
m ons
Ġman ual
Ġman ually
ĠK ir
Ġcross ing
Ġab lation
Ġal beit
Ġa id
Ġbuoy ancy
ĠT I
Ġartic les
= (
W I
Ġv ice
M et
ĠUn f
Ġconver t
E V
Ġneighbor hood
Ġk arst
h m
Ġper cept
Ġfeas ibility
Ġoutdo or
Ġquant ifying
ĠT X
Ġmon ol
Ġcool er
Ġneg lected
de pth
Ġl ane
ĠF M
Ġ7 4
ĠB B
Ġman age
Ġsc our
Ġbel t
ric k
Ġn ested
in osa
Ġemphas ize
Ġex ert
G I
Ġz ebra
Ġdefic its
Ġaccess ion
ĠGFD L
Ġcloud y
Ġ8 4
al g
ĠValu es
Ġbe aring
Ġov erestimate
b ond
ĠDr s
ish ing
ĠD TT
Ġmon omers
Ġpath ogenesis
ĠWh ite
Ġm ind
Ġt ang
Ġbreak s
p ur
Ġrequ iring
Ġaware ness
per s
ĠD D
Ġsub p
Ġ7 1
Ġfar ther
Ġpublic ation
ĠO x
ilib rium
cl aim
phosph ate
Ġste el
p d
M o
ĠT an
th ird
Ġdown loaded
ar an
Ġheter ozygous
ĠE s
+ /âĪĴ
ĠE stim
Ġ7 9
ĠT RI
unction al
Ġ ï
b rain
z er
pl ay
Ġch ick
yn aptic
Ġsh ading
Ġcircum st
Ġf rost
ĠAss uming
Ġinflu enza
Ġvirt ually
K T
ĠSt ra
ad vant
w et
ĠS ource
s olid
ĠUn ivers
oid al
Ġseason ally
ĠT or
Ġmut ual
Ġmicroph ysical
sp ace
Ġprogress ive
Ġax ial
Ġcust om
Ġ20 30
Ġexpl oration
Ġassay ed
Ġsynth ase
ul s
Ġdiss olution
Ġmult idecadal
Ġcorrespond ed
Ġcap illary
co ol
Ġstiff ness
dom inated
Ġphys ic
Ġdef ective
access ion
Ġp le
Ġphot ochemical
oly tic
Ġpolar ity
Ġbo ost
um or
Ġexpon ent
ĠF low
Ġang i
Ġcon junction
os ens
Ġdifferenti ate
Ġco ag
op en
Ġ8 8
ðĿĲ ¹
Ġant igens
ĠT ur
Ġturb idity
Ġsynd rome
Ġparas ites
Ġmat ches
Ġpr one
ac erb
Ġcorro bor
Ġaud itory
d t
Ġpl umes
Ġperform ances
ĠGerm an
Ġstructure d
ĠA ust
eg rad
Ġnit r
ĠAss ociation
c are
Ġb rown
Ġan est
Ġgaug es
ĠExperiment al
Ġconnect ing
stim ulated
ĠH NO
Ġemer ge
Ġdis order
c ible
Ġmeaning ful
Ġfound ation
ĠT D
Ġreport ing
ĠâĢ ¦
Ġcar rier
Ġinterest ed
Ġprovin ces
Ġweek ly
in it
Î ¦
Ġpip es
ĠF BS
n et
Ġord ered
oc he
l ock
Ġunderst ory
Ġadjust ments
Ġla un
Ġsubs id
ol i
Ġback scatter
Ġserv ed
Ġg ains
f ected
Ġvers a
Ġd imers
ĠVal ley
Ġl anes
Ġnot iced
itor ing
Ġautom ated
Ġobserv ing
Ġsaf e
ĠV ir
Ġparameter ized
ĠR and
Ġc ame
Ġdest ruction
ĠMich ael
ĠIm aging
Ġc ave
ĠUnf ortunately
os it
Ġforest ed
Ġdist ant
resp ons
Ġsl iding
ĠMan agement
l ip
pl oid
Ġt ons
ER T
Ġm A
we ek
Ġ1 200
ch rome
Ġex acerb
Ġautom atic
Î ¶
ĠSI C
Ġtranspor ter
h uman
t otal
ĠL F
Ġcount ing
Ġmi RNAs
Ġl ens
or i
ffici ency
Ġnon c
f a
Ġout liers
ĠS SA
ob serv
A Q
Ġsubtrop ics
Ġcomp atible
Ġepit ope
Ġs ing
Ġpart ner
Ġcytos ke
ol ate
ĠH T
Ġag ar
ĠM Pa
Ġdis p
Ġsocio economic
ĠD N
G IS
ĠSm all
ĠD ise
ĠAn nual
Ġpil ot
ĠE PS
Ġindex es
Ġen co
Ġredu ct
Ġcomp ression
Ġmon oclonal
ron t
j ust
Ġmar gin
. [
Ġinteg rate
Ġcre ates
Ġco exist
Ġcro pland
Ġwar ning
Ġw aven
on ge
h r
P T
Ġdys function
Ġcre ation
Ġbe ech
Ġg ame
ĠG ol
Ġmultim odel
Ġcar bohyd
st ock
Ġinund ation
Ġunus ual
Ġrecru ited
ist an
Ġap ical
ĠG ly
re ement
Ġ8 2
Ġsple en
Ġassembl ages
m olecule
Ġse ep
Ġantib iotics
ĠU rb
Ġattenu ated
Ġ8 6
Ġr pm
se ason
Ġdis par
Ġconcept s
ĠA PP
Ġapplic ability
n l
Ġtrans ect
Ġstorm water
Ġlag s
ĠR Nase
Ġves icle
ĠR B
pr isingly
Ġk W
Ġscreen ed
Ġfor aging
Ġre per
Se ptember
Ġdel ta
ar atus
Ġperp endicular
w inter
omp son
Ġremodel ing
Ġobvious ly
Ġcont empor
Ġin equ
im odal
Ġn erve
Ġdesign s
Ġf ec
Ġdec o
)âĢĵ (
ĠE nd
ar ter
Ġcom fort
u a
ĠB Y
ew orthy
Ġc otrans
Ġdepend ency
over ning
ĠS Y
Ġcontrast ing
Ġref inement
ucle ar
ĠDet ails
Ġsummar izes
Ġvent ral
Ġelectro ly
Ġdis advant
Ġex it
osystem s
Ġcylind er
Ġwithd raw
ĠM u
ĠW A
c old
u cl
h um
Ġo p
ĠCa M
f il
c rit
ĠM el
Ġland fall
î Ģ
Ġperform s
ĠMod els
Ġstand ing
Ġphot oc
ĠV OCs
Ġdis ulfide
Ġaddition ally
ococc us
Ġprob abilistic
control led
Ġgain ed
Ġl n
Ġrect ang
Ġlink ing
ĠR ay
u ity
Ã ¯
Ġtox in
c p
on ent
ðĿĳ £
bi ased
Ġl amin
ĠL I
hydro gen
Ġgen der
ĠNe u
Ġstr ing
ab oration
Ġscaff old
m n
S out
Ġp ad
11 1
Ġimplic it
Ġge ost
mer c
Ġcapac ities
Ġmodul us
id yl
Ġalle vi
ri an
reg ion
Ġinteract ive
Ġhe ated
Ġfert ility
or ient
ĠH ong
ĠCar bon
P L
Ġimplement ing
ĠH sp
Ġconf ound
Ġdefin itions
Ġre nd
Ġinsp ection
ĠZh ou
ĠEng land
Ġcon e
no ise
Ġair borne
Ġ9 2
Ġvol umetric
ĠRam an
Ġref ined
Ġspec ulate
Ġ8 3
Ġpass ing
Ġ3 50
ĠCol le
ĠFlor ida
Ġst aff
am bo
Ġwas hing
Ġab er
ĠE CH
Ġpro of
pe ed
Ġf aces
i able
ĠCol orado
Ġ( Â±
Ġsnow melt
Ġax es
Ġaltern atives
c ore
ĠR y
Ġpred ation
ĠAG CM
Ġdes al
Ġa ustral
Ġp estic
c over
ĠPro b
g s
Ġel imination
hour ly
is k
H e
Ġexper ts
Ġhemat opo
Ï ĩ
Ġgrain s
Ġco ating
Ġcandid ates
ic illin
osph ate
Ġg els
Ġesc ape
ĠE le
ĠTy p
ĠH i
al so
Ġinnov ation
el le
ĠP Cs
Ġpro ve
Ġg overning
M g
Ġbl ade
Ġcounterpart s
ĠAver age
ĠL B
ĠS ix
Ġdu ct
P V
Ġrig id
et er
v ille
wester ly
Ġb rom
Ġcapt uring
16 0
Ġw ound
Ġas ympt
ad apt
on ed
Ġre ality
Ġcontour s
po ch
ĠS ign
Ġsimul ates
Ġth aw
ĠA p
irection al
Ġreag ent
os ine
ĠT G
op ter
Ġmot ility
Ġin her
Ġstruct urally
Ġchlor opl
Ġback ward
ĠTr p
ĠW ild
Ġrecommend ations
chan nel
Ġf abric
AR T
Ġdynam ically
ĠS k
Ġprev ention
ion ally
Ġb enthic
r ants
Ġepit helium
pl an
D ataset
for ced
Ġspecial ized
ĠR et
ain ing
Ġcr ust
Ġlack s
ĠH Y
Ġorigin ated
M c
Ġbi ophysical
ĠCom mission
Ġdisrupt ed
ĠS B
at ab
Ġfav ored
Ġevol ve
ĠUp on
Ġeut rophic
ĠB rit
ĠAn aly
ĠU b
Ġspring s
Ġdiagn osis
ios is
Ġcircul ating
Ġtour ism
ĠP inus
+/ +
ĠCurrent ly
oc yst
Ġmanip ulation
il is
romet er
Ġn as
conn ected
re y
ur able
Ġapp aratus
Ġtherm od
Ġinh om
cy cle
ect in
re atic
Ġenerg etic
bas in
here after
10 7
Ġskill s
up le
Ġstraight forward
ib rary
ĠCar ib
Ġnormal ization
ĠS v
Ġte am
ĠT aylor
Ġund ers
R R
ĠA bs
Ġg ast
Ġhe lic
Ġdis aster
Ġpreval ent
Ġmism atch
ĠCount y
ĠA kt
Ġsatisf y
cl onal
ĠL eft
Ġright s
Ġhere in
S er
o ft
s ch
Ġexp ensive
Ġt all
ĠS n
ĠS ect
ĠUnder standing
at ics
Ġteleconn ections
Ġneed le
ro ut
ack son
Ġvolat ile
Ġco val
Ġcondition ing
Ġax ons
Ġautophag y
oh ist
Ġf etal
ĠH el
Ġcontrast s
Ġkeep ing
Ġd ots
ĠBi om
Ġempt y
rom agnetic
Ġhypothes ize
ĠA MS
Ġd ed
Ġran ked
direct ed
en er
Ġf ill
Ġbrief ly
or rh
ĠJ A
c ap
exp ressed
Ġer yth
Ġsubject ive
Ġb id
Ġar ter
Ġincons istent
Ġreveal ing
irus es
Ġign ored
o ons
per t
ĠÏ Ģ
Ġsch ool
th at
Ġbl ast
Ġapp lies
ĠD U
Ġp and
P r
ĠD iv
Ġancest ral
ĠM yc
ell ig
resp onse
Ġeng agement
pl us
Ġfisher ies
ĠAer osol
ĠAr c
ĠDel ta
Ġs orted
Ġk illed
inf ection
Ġcere vis
ĠR CMs
Ġtrans mitted
Se q
4 50
ĠL ike
are a
Ġf ulf
ill a
ĠMedi um
Ġattempt ed
Ġsand y
Ġpolyn omial
ĠR un
Ġtrans mit
ay ers
Ġmult id
ĠS NP
Ġdef ines
ĠC CM
ĠF ed
Ġsenes cence
Ġacknowled ges
Ġphosph o
Ġclear ance
ĠT T
ment ed
ĠT SS
Ġnom inal
Ġsnow pack
oflu orescence
Ġcontamin ated
Ġapopt otic
âĢ² )
trop ical
Ġutil izing
ĠS ha
F I
Ġag ro
Ġcerevis iae
ĠO l
Ġim aged
upl ing
ĠBiosci ences
Ġsurv ive
ĠS ingle
N L
V S
Ġaccess ibility
M B
Ġinst ances
t i
ĠC i
Ġrecip roc
Ġfol ded
Ġ8 9
ĠCo upled
ĠF ram
Ġmedi ates
on ia
Ġjuven ile
off s
Ġeru ption
c ase
= âĪĳ
ĠArab ian
Ġphys iology
z i
ur rence
ĠT rit
Ġlymph ocytes
M arch
ĠAn y
Ġterrit ory
c ir
ic in
Ġglac iers
um ina
Ġnot eworthy
Ġ10 8
ĠI G
Ġrevers ible
R es
Ġf illing
Ġal b
11 6
Ġphot ore
Ġsav ings
Ġanticip ated
ĠP ath
Ġcoll abor
h ole
Ġpro state
en ario
ĠH er
Ġno vo
E n
d m
CC P
Ġradi ance
ĠI T
Ġcorre ctions
te ch
Ġmass ive
Ġal umin
ĠAM IP
Ġview s
syn aptic
transfer ase
ĠCarib bean
Ġsp inal
ĠSO D
Ġfraction ation
ĠT aking
ĠP os
b ody
ĠC TR
Ġasc ending
Ġure a
avail able
ĠL N
Ġstrict ly
O B
aff inity
Ġc ass
t rack
n ative
ĠJ e
ur ies
oot hed
ĠF ield
ant i
ĠmT OR
Ġquadr atic
10 2
Ġsp ent
ĠK al
Ġ( +
ĠR en
Ġrecip ient
Ġadequ ately
Ġmicro gl
ðĿĲ »
ĠSh ang
Ġorgan izations
Ġis oprene
Ġblot ting
ke ys
Ġcategor ized
Ġant ic
Ġpl ain
ĠR u
Ġ29 3
under storm
Ġcir cle
ĠH ug
ĠE ffect
Ġtel om
m es
Ġt andem
Ġdop amine
v ity
ay a
act ing
m y
H is
ĠH Cl
Ġstrengthen ed
Ġco ated
ĠP SD
Ġtransp os
ĠPa ul
s lope
Ã¯ ve
ne um
Ġhundred s
Ġinform ed
gl ut
C ol
Ġconstit utive
w orth
00 3
ĠSpec ial
Co A
Ġtyph oon
Ġsout herly
ast ically
Ġcor d
ĠB acter
Ġopin ions
ĠL im
Ġlim b
ĠSp ace
ĠAssess ment
Ġstrand s
Th is
i etic
ĠH I
ðĿĳ Ķ
- /
Ġshel f
Ġtrigg ering
Ġbrain s
f usion
Ġsch olar
ĠC ir
ĠM ong
Ã³ n
Ġp est
Ġ8 1
ether lands
et ts
Ġbro ken
Ġ2 16
Ġarbit rary
Ġfree ze
Ġc ert
Ġsh ut
Ġstre pt
Ġtra pped
ount ered
Ġo c
Ġhomolog s
ĠO k
Ġconduct ing
Ġal pha
Ġper i
bo ard
Ġpolym ers
Ġrh iz
Ġd urations
Ġalkal ine
Ġprog n
Ġ19 76
ĠSur prisingly
Ġfin er
igen ous
C as
Ġposs ibilities
Ġiso form
Ġwor st
ĠX u
ĠH al
199 3
ON ET
do ctoral
ogen etic
ĠATP ase
Ġsensit ivities
ĠE p
Ġstat ements
ĠEuras ian
cent ury
Ġl apse
ĠL y
i ary
Ġinflu x
Ġenc ountered
Ġzebra fish
ĠCru z
j i
ĠR edu
c ross
Ġemploy ing
Ġfacilit ated
Ġan ion
ĠD am
Ġsp ray
rad ict
Ġcon g
her ry
Ġdisper sed
Ġar sen
el in
ĠF C
m ouse
ĠDet ailed
Ġimp ossible
ĠPhil ipp
Ġiter ations
s ize
av a
Ġlab el
ĠEOF s
u its
ĠCd c
f ed
onom ous
im ilar
Ġmon o
ĠR R
Ġ9 3
Ġcult iv
Ġspread ing
Ġarr ival
lim ation
ambo o
Î ĵ
iss on
Ġlook ing
Ġauto immun
ul sion
Ġfil es
ak i
i agen
Ġin duct
Ġrespond ed
Ġepigen etic
ac Z
ĠNorth west
Ġsqu ared
Ġconsum er
Ġhurric ane
Ġterm ination
Ġmin utes
assemb ly
Ġequ ival
Ġacet yl
ĠN SE
X R
ĠA rea
Ġexcit atory
S h
ov al
Ġinitial ized
Ġra ises
D AR
eng er
ĠW ar
ill ar
Ġisot opes
Ġens uring
Ġtransport s
Ġcampaign s
ht ml
Ġcomp rise
ĠHD AC
Ġfunction ality
t emporal
Ġlong est
Ġcrit ically
Ġbi ogenic
Ġprogen itor
se asonal
d ays
ĠF GF
ĠS ite
ĠA PC
ĠBo ard
Ġnut rition
produ cing
Ġmultipl ied
ĠV OC
Ġhaz ards
ĠJ o
Ġcont raction
m olecular
Ġran king
Ġk cal
I ON
Ġcomp any
ĠRuss ia
Ġz en
ĠMult iple
Ġan ne
ĠB eng
10 9
ĠCol lect
Ġundert aken
ĠL ic
10 29
ĠK E
ĠE arly
Ġalco hol
Ġhom ogeneity
Ġl ot
low er
Ġremain der
ĠD un
Ġsc av
Ġestim ations
Ġgra de
mod ified
Ġdesc ending
Ġinter faces
enn ial
Ġdisc ret
ĠN etherlands
ut ively
ĠT EM
O s
now led
Ġhyper t
Ġw ake
Ġcon comit
Ġcont radict
Ġdisturb ed
ĠE LI
Ġre ven
ĠÏ ķ
Ġinver ted
Ġdis asters
Ġreturn ed
Ġoutbreak s
ĠK n
Ġbatter ies
Ġhighlight ing
n atal
Ġsu ite
Ġintens ified
ĠInd ividual
ĠT ak
S U
her in
ĠLabor atories
ĠSiber ia
Ġg ating
Ġprogress ively
ðĿĳ ¤
Ġmedi ating
F M
Ġma x
Ġj unctions
Ġd os
Ġcovari ates
Ġel uted
ol ith
Y FP
ĠTh ose
gin ine
Ġles ion
ĠWW TP
ĠL ou
Ġcl ade
n ic
ĠM it
up lex
I g
Ġcharacter izing
ĠM PI
Ġgre w
Ġdes irable
ĠA N
W H
f u
Ġst ably
Ġem ot
Ġge othermal
Ġperturb ed
Ġcap ita
ĠWhe ther
Ġemphas ized
a que
Ġrest ore
ĠIm age
ox ygen
Ġe poch
ĠBas ic
Ġaccept or
Ġabsorb ance
Ġdon ors
Ġminim izing
rog ate
Ġout per
ograph ically
â Ł
ĠCon serv
Ġco hes
Ġresult ant
Ġexpect ation
Ġabol ished
th ly
Ġc ow
b earing
Ġg ift
Ġcollect ing
Ġdepict s
Ġsh ade
Ġro utes
Ġefflu x
Ġ10 3
ĠJ ournal
ophil ic
Ġident ifies
ine a
Ġnerv ous
ĠIn s
Ġw etter
Ġtrigg ers
Ġser ial
Ġvide o
Ġb ag
ĠAck nowled
Ġe V
ĠB S
Ġsperm at
ĠProt ection
it ance
Ġradical s
Ġconflict s
d U
Ġso y
ĠM IR
Ġdig ested
ĠP ower
ĠQ ual
Ġorigin ate
Ġmon ot
c orrelation
ĠLe vel
Ġv as
Ġ15 00
ĠDM EM
os ide
ocy tic
p n
in hib
Ġbaro tropic
W R
s i
ĠL ip
sc ript
Ġo ocytes
ĠSwed en
el er
ost ics
ĠPol and
Ġ19 78
k ingly
Ġcham bers
Ġval ve
ĠD L
ott on
Ġcooper ative
ĠV i
Ġmicroph ysics
Ġsummer time
Ġsuccess ion
ĠM is
ĠCl uster
Ġres emble
eren n
arm ing
Ġis other
c ation
Ġdiab etes
Ġcry o
ĠPD F
ĠS to
imet ric
s pecies
Ġf ell
ĠD aily
Ġpar a
ĠB ra
Ġvacu um
Ġcolle ag
ĠF D
ri end
Ġflow ing
Ġsess ion
ĠInvest ig
ĠELI SA
ĠNort heast
icular ly
Ġreef s
Ġprom pt
Ġcycl in
iab atic
ĠSp atial
end all
review ed
Ġsumm ers
en ic
Ġsex ual
Ġaux in
w ar
Ġf oci
ores is
Ġexplo itation
Ġzen ith
AC T
Ġdefic ient
Ġmit otic
Ġdro pped
Ġco pe
Ġdi e
Ġinh abit
Ġl ists
Ġstrength s
Ġmethod ologies
h ist
Ġfacilit ating
Ġrepl acing
J uly
rang ian
Ġf ifth
i ative
Ġp umps
Ġn s
Ġth understorm
ĠL ife
Ġtransl ational
Ġle thal
e es
ic ation
iment al
Ġprogram ming
Ġutil ize
Ġdevelop s
ĠV P
K s
ap ing
olog ous
Ġben z
Ġpel let
ĠY oung
Ġconcern ed
w ent
Ġrev ised
l ate
it ary
o il
Ġacid ification
b ach
olog ists
ig an
Ġan atom
station ary
ain ed
Ġparticip ant
Ġs ay
ĠM ont
ĠW D
Ġstabil izing
ni h
W ang
Ġprior it
g rad
Ġrow s
ĠÏ Ĩ
Ġg y
ĠX ie
Ġ10 7
Ġoff icial
Ġincre ments
Ġs ac
iffiffiffiff iffiffiffiff
Ġstat ement
erv oir
NA c
ĠGu ang
um ar
Ġbel ief
ort ic
Ġcub ic
Ġdis cer
Ġautom atically
ber th
De cember
PS S
Ġbil ayer
ĠS atellite
v ised
Ġor bit
Ġsmooth ing
Ġag encies
Ġfl ashes
ĠB etween
Ġinoc ulated
N i
ĠP rom
Ġv ig
Ġpand emic
ĠJ ac
erg ing
Ġunder ground
m its
respons ive
ingu ish
ren ch
Ġst ore
Ġcycl ic
os h
Ġfibr ils
Ġmon keys
Ġhydro ge
ĠW ork
Ġs ilt
Ġprogen itors
IS PR
g as
Ġelement al
m d
A pril
yst all
Ġconifer ous
Ġmic roscopic
Ġen cl
ĠTrit on
Ġanalyz er
ic ide
Ġb amboo
do i
Ġco il
ĠB cl
umb ia
Ġit eration
Ġin ability
alg ae
vi a
Ġchlor ine
ĠColle ge
ia z
Ġhy g
Ġ9 1
ĠHP LC
Ġlic ense
E x
rel l
ĠC ER
og ly
Ġever green
ĠL GM
oun ger
acc ur
Ġdimension less
Ġcirc uits
Ġform at
Ġzo oplankton
ren berth
Ġcircumst ances
ĠL SM
Ġre use
em pl
Ġsolub ility
Ġstret ching
ĠL ocal
Ġharm on
G en
a ugh
Ġgrass es
ĠH an
Ġpred ator
ĠSt ream
Ġtr ust
ĠÎ º
ĠSpec ies
Ġb r
Ġeru ptions
act or
Ġvis ibility
ĠC ur
ĠR ather
ro us
ĠâĢ ²
Ġexpress ions
itz er
cul ated
he x
Ġadd ressing
G l
ut ical
ĠF ar
ðĿĳ Ģ
20 22
Ġenhan cer
Ġclar ify
ĠNA D
Ġcoinc ident
lies t
Ġ9 00
er ies
ĠG Î±
arm ace
ĠI GF
ĠC CR
Ġc ations
10 8
Ġexpect ations
Ġlat est
Ġpro to
ĠRel ative
Ġind ist
Ġh uge
Ġallo ster
Ġdet rend
/ ).
Ï µ
im m
av or
Ġsub tle
ush ing
2 20
Ġprogen y
Ġpost synaptic
Ġpreferent ial
= âĪĴ
ĠD I
ĠSt re
enn a
gr ass
v ic
Ġillum ination
Ġanomalous ly
or rect
est ab
Ġinter fer
ucle otide
U P
Ġbur ied
ĠG overnment
Ġgre y
han ol
she et
Ġexpand ing
ĠH art
erenn ial
Ġax on
l ational
r ically
ear ly
Ġpar k
Ġorb ital
ĠD a
12 2
Ġdisord ered
Ġsil ica
Ġdeath s
Ġspec ification
er ic
ĠCre ative
Ġun related
Ġapproxim ated
ĠG B
Ġwor se
Ġins olation
Ġnons pecific
om an
Ġb or
Ġ1 70
Ġbelong s
Ġphen ological
Ġrel ating
re le
app roximately
Ġsal mon
ĠPK A
ul as
em a
b ase
Ġpoly clonal
ĠMA E
ĠS en
NP P
ug inosa
ĠCent ers
Ġst ay
Ġimmun oblot
Ġconf lu
y p
Ġneu rop
Ġconstit utes
ĠCAP E
Ġcertain ly
Ġlif es
Ġrib osomal
Ġde hyd
ĠIncreas ed
Ġpre gn
Ġsp ur
ĠEq s
Ġh r
Ġle gal
ĠP SI
Ġflood plain
year s
Ġeas ier
Ġag arose
ĠPl ains
Ġearth qu
lob in
Ġclass ic
Ġsm oothed
ĠG I
Ġturn s
ĠIncreas ing
z es
Ġthous ands
Ġunfold ed
Ġsh aded
Ġp neum
pl ing
Ġt ill
ĠInter comparison
ut er
Ġlear n
ron tal
ĠE con
Ġha ze
squ are
âĪ ĺ
Ġassoci ate
ĠE kman
ðĿĳ Ħ
l ast
ĠJ ones
Ġneg lect
Ġext r
Ġaer obic
ĠG eor
Ġintr usion
Ġstress ors
om ain
Ġs an
Ġdelet ions
ĠP ER
Ġconstitu ents
x in
i op
Ġm and
Ġn itro
ĠC ry
typ es
Ġw ing
Ġaccomp any
Ġform ulated
ĠR ho
ĠRec her
Ġtre ating
ĠAER ONET
Ġaer uginosa
tain able
Ġprof ess
aster ly
Ġcyan obacteria
Â° .
ĠStud y
Ġdiss imilar
Ġmic rop
idel ity
Ġme g
Ġminim a
ade qu
hydro xy
Ġdimer ization
Ġt au
ĠL ang
Ġsubtract ing
Ġsub d
D L
Ġk Hz
âĢĥ Ċ
ĠH aw
Ġmanufact uring
armace utical
ot ing
Ġsp ill
Ġt ar
Ġc art
Ġwill ing
Ġacceler ate
Ġfre ely
i pping
cipit ated
l ie
ro le
ĠMeasure ments
ĠO pen
ĠAtt ribution
Ġver tebrate
Ġj ump
ĠSt anford
ank s
Ġra ise
Ġun even
ĠFran cis
Ġs onic
Ġcomb ines
ĠSO N
ĠL WP
Ġretro v
Ġphosph olip
ac i
il ia
S c
Ġdevelop ments
Ġcross ed
Ġcit iz
Ġantagon ist
Ġgo at
ĠSch olar
Ġb atch
Ġbas ically
Â ®
pl ots
Ġsegreg ation
ĠRich ard
ĠI A
aly pt
Ġp ick
ĠT est
ĠS lo
respond ing
Ġreturn s
s w
Ġlys ine
11 5
Ġfron ts
Ġg ram
ĠExper iments
Ġmicrotub ule
Ġsatis factory
ĠGol gi
Ġna Ã¯ve
ĠPh ase
ĠDM SO
ĠI SM
ines cence
ion ine
ĠR D
li ance
ol f
Ġcolleag ues
Ġl ent
act ions
Ġ19 77
ĠAlex a
Ġd ict
Ġlog istic
ĠS K
ĠS CA
ĠKing dom
Ġirre vers
ĠG ro
f ires
ĠV I
Ġadjust ing
Ġseep age
ĠCom mons
s ample
Ġins ensitive
Ġcoin cid
ĠShang hai
Ġpen al
Ġdecid ed
Ġfac ing
g ers
Ġw ire
Q u
Ġo ct
Ġb if
Ġsu p
Ġv ar
Ġoper ators
ĠX in
Ġbubb le
j a
cat ch
Ġm oss
clim atic
Ġaff ord
arm an
ĠN eg
Ġexerc ise
ĠR ED
il er
f ilt
uc alypt
Ġre tic
unt ing
ell es
ell ular
M OD
19 80
Ġmal ign
ĠT OC
Ġen lar
ĠC amp
Ġst rom
Ġposition ing
Ġintrodu ces
er ate
Ġ4 50
i y
Ġdiffus ivity
Ġbootst rap
Ġguarant ee
Ġsing ular
ĠLic ense
j o
inguish able
acchar ide
Ġexpl oring
Ġpoly s
al and
Ġtra cers
Ġsurround ed
ac ies
Ġextrat ropics
Ġtra ces
n els
ampl ing
U A
ĠB en
g f
Ġpolymer ization
ro y
con duct
Ġbir ch
Ġgra vel
im um
Ġn ame
ĠN ow
Ġactiv ator
Ġb rack
et ra
ĠS G
Ġcl onal
Ġdirection al
Ġpast ure
ci pl
Ġg ard
re m
inc reas
omer ase
pt ide
c d
Ġdownsc aled
O ctober
or ial
R L
p osition
Ġdecomp osed
Ġal pine
om at
ĠP he
re ting
ent in
Ġpre industrial
ĠAG B
Ġstrat ified
ul ator
ĠECH AM
00 4
Ġmon so
ann a
ĠCollect ively
Ġso ot
m ode
ĠI PS
Ġr ms
Ġchar ges
Ġcom mit
Ġth ink
ism ic
sour ce
Ġa a
Ġb ov
ĠP EG
ĠâĢ Ķ
E GFP
ĠD own
ĠSur vey
ĠF O
ĠA u
Ġris es
ĠA CE
Ġlit term
Ġelectro chemical
ĠA BA
Ġcr ude
13 2
Ġear liest
âĢ¦ ,
ill us
ild ing
Ġpa id
Ġsurpr isingly
ĠUrb an
H Y
Ġpack ing
Ġpre treatment
E RA
Ġint ellig
Ġhous ing
ce ment
Ġsupp lies
ĠL td
Ġcloud iness
ĠE L
ĠD an
ĠTh r
c ost
ĠRNA P
g y
Ġcontempor ary
Ġabnormal ities
Ġar ranged
_ _
Ġmult if
in form
ase ous
com ing
Ġinvest ments
ĠHug hes
Ġpl ated
Ġspec imen
ĠT reatment
Ġper oxid
acet yl
ĠU t
ĠÃ °
Ġinject ions
S v
Ġsink s
Ġ19 75
ĠAl t
char acter
ĠRain fall
Ġcompar atively
Ġdemon st
Ġabs or
Ġcleav ed
ĠC CA
Ġf ru
Ġr ated
ĠH en
ĠInstr uments
Ġob st
SO C
sec ond
P er
ĠA IRS
99 6
roph ot
Ġgovern ed
ĠLST M
âĦ «
ig hed
Ġnitr ification
ĠB ol
n y
Ġg yre
Ġmm ol
Ġdistinct ive
Ġsegment ation
E OF
ab e
ĠO S
Ġpercent iles
Ġis chem
Ġt ert
Ġlys ed
pl ast
Ġd uplex
Ġdistin ction
Ġloc om
ĠH imal
ex cept
Ġcoll aboration
Ġavoid ed
Ġgrow s
ist ed
Ġmeth an
Ġh am
Ġthreat s
ĠK o
v ate
Ġtransient ly
Ġeukary otes
ĠZ hao
Ġindist inguishable
os c
Ġflu ids
ĠG re
le aved
Ġregist ered
ĠLe u
Ġwork ers
in ities
ĠP IP
Ġt on
val idation
ĠL O
Ġpel lets
Ġinc orrect
Ġde leted
Ġrel ates
Ġload ings
in ase
ĠWe b
Ġprote asome
Ġoverexp ressed
Ġcontinu ity
ĠSwed ish
Ġacqu ire
ĠSW E
ĠD MS
ĠG round
Ġpo pl
i ety
ut ral
S upp
Ġcat tle
Ġdoub ling
oph istic
Ġhematopo ietic
1 19
Ġphysic ochemical
Ġstret ch
M yc
id i
Ġacet ylation
Ġdivers ification
Ġex ons
ĠD u
Ġtank s
c els
w ers
ĠInnov ation
Ġclass ify
Ġplan ned
ĠMD A
Ġe e
Ġsynerg istic
Ġequ als
Ġbioge ochemical
Ġconstit utively
du cing
ies t
Ġredist ribution
Ġent hal
â Ĭ
Ġspl ice
elect ron
C hem
Ġundergo es
orm s
Ġstr ip
Ġn emat
ĠN ak
Ġbond ing
Ġelic ited
op us
Ġliv elihood
Ġsto pped
ov a
Ġsuppress or
ĠR C
t ail
Ġb ip
Ġarrow s
Ġm ine
Fe bruary
h io
s peed
Ġes ter
Ġens ures
Ġreper to
or cid
ĠC z
ĠM IS
d el
ar r
ĠL at
clud es
Ġbo ard
Ġpop ulated
uc ine
ĠD ong
ĠB on
ĠThe ore
Ġv ox
und ra
be ing
ĠJohn son
Ġint rig
Ġpure ly
Ġh oc
NC EP
Ġ19 00
Ġprob able
Ġw ord
Ġneigh bors
ĠP ak
ĠMEF s
Ġin adequ
ver ty
Ġbi ore
Ġant im
du ate
n it
le ar
ĠM ill
Ġtax on
ĠTh ompson
ĠSo ft
Ġal iqu
Ġthe ories
Ġcoast line
ĠTh ough
Ġdeploy ment
Ġsa id
C u
miss ions
Ġshar ply
Ġpo verty
Ġec o
ĠPr im
Ġpar cel
Ġclon ing
Ġrig orous
ER G
Ġwild life
Ġlag ged
em atic
Ġgo ing
Ġbeet le
Ġne cro
Ġaer ial
Ġd f
Ġpublic ly
ĠS pe
Ġintermitt ent
Ġc ad
om yc
Ġshort age
ĠRecher che
Ġm ere
ĠMon thly
Ġp ed
CS F
fit ting
hem e
8 50
ĠP seud
form ance
resp ective
Ġpres ynaptic
p ole
Ġdeb ate
ĠK r
Ġcardi omy
b ur
Ġvis ually
Ġfav ors
V M
ĠE ASM
Ġmonomer ic
ĠP N
Ġtranscript ome
Ġded icated
Ġim balance
Ġsu ffer
od ic
Ġ urg
12 9
ĠHC V
s ign
Ġobst ac
Ġt ables
ĠM LS
Ġprof iling
ĠMon itoring
Ġlead ers
Ġharm ful
Ġm b
Ġarg ument
ect ing
Ġsc ans
Ġto wn
Ġparamet ric
ed ge
m ain
Ġion ization
Ġp pt
Ġg ov
arent s
em e
Ġret ina
Ġca ution
Ġman ure
Ġdetermin ants
Ġ 01
Ġab and
Ġp erennial
ĠH V
b etween
eng ed
Ġinter play
Ġaccompl ished
ĠIndones ia
Ġeven ly
othe rapy
Ġnort herly
Ġs ays
ĠS ing
Ġtranspor ters
Ġsp aw
ree ze
Ġret reat
Ġcoinc ide
G MP
ĠSp anish
Ġscar ce
Ġcontin ents
Ġhydro ly
Ġlifes pan
Ġcyto chrome
m ix
G u
Ġpredict able
Ġresc ued
ĠHol ocene
ĠPort ug
Ġhemisp heres
ĠD ig
Ġinf ants
hed ral
Ġret in
ra c
ĠC ap
car bons
Ġm erged
ĠPK C
Ġfund s
ro vers
ĠProgram me
Ġs ophistic
Ġsh ares
Ġhypot he
Ġmacroph age
Ġrece ives
Ġcomp iled
L AB
Ġquant ile
Ġaccording ly
Ġx en
ĠI ran
ĠHow ard
ĠCle arly
Ġle ave
d am
Ġster ile
Ġrec urrent
Ġveget ative
Ġtransl oc
Ġstre et
ut ch
ĠH CO
Ġcoinc ides
Ġ19 71
Ġast rocytes
ĠLou is
199 2
Ġflight s
i pl
Ġso on
Ġsp ind
duc ive
Ġbund le
re me
Ġbi ologically
Ġi j
Ġelectroph oresis
Ġpun ct
Ġwaven umber
12 8
Ġdiag onal
ep endence
Ġcrystall ization
Ġste am
Ġvisual ize
J an
Ġexplo ited
ag ic
Ġconver s
b ec
ject ive
Ġv ap
fact ion
b urn
ĠF ab
Ġexist ed
ch rom
ĠJ in
Ġsatisf ied
Ġpro inflammatory
Ġgo es
Ġleg is
Ġs ie
ĠSw iss
ĠId ent
ĠPos itive
arv ation
K I
Ġbudget s
Ġassign ment
Ġdepolar ization
Ġst ir
Ġtrans cribed
Ġdeterm inant
Ġinterest s
ĠMa ximum
Ġt ion
pro t
Ġd ial
sub unit
no aa
ĠD W
ĠN CAR
ov ol
s g
ĠTh omas
Ġsub mitted
ĠVari ous
Ġweather ing
Ġgly co
ĠAgric ultural
mon soon
Ġdiagram s
ĠCR ISPR
Ġauthor ities
b our
ĠL ind
13 3
Ġt ong
id ic
Ġpoly g
Ġdig it
ur ance
Ġfil ms
omer ic
b le
12 6
ĠC reek
Ġg aseous
in ite
Ġest u
Ġmom ents
Ġc ue
Ġiter ative
Ġsul ph
ĠL og
Ġcat alysis
ĠF rench
Ġsu ited
ĠNE E
Ġcount y
ĠAnd erson
ĠD ay
Ġperipher y
ĠC er
Ġwithdraw al
Ġm osa
ĠGen Bank
ĠRem ark
Ġar c
Ġunderestim ates
Ġantis ense
sum mer
Ġcondition ed
S p
Ġdis pos
con st
ĠZe aland
P acific
h om
Ġassimil ated
Ġchem ically
j e
ov ascular
15 5
ĠH SP
ĠF ire
ic ate
Ġads orbed
at hered
iz able
Ġb at
Ġant iviral
Ġdown welling
Ġdet r
Ġcon ducive
ĠA IC
Ġneuro deg
orrh iz
ĠModel ing
Ġpanc reatic
Ġsub group
Ġox ides
Ġorograph ic
Ġampl ify
og as
Ġalloster ic
aff in
Nov ember
erc us
B i
ĠPart icip
ĠPo isson
b el
Ġlandsl ides
P F
i ant
r atory
ot in
Ġthere in
Ġimpair ment
u i
ary ing
Ġplat forms
ĠM ary
ĠC e
G N
g est
Ġt uber
ress or
ul se
Ġsp here
ĠPl asm
Ġhomogen ized
Ġvi ol
AR s
Ġsol ute
ĠRef erence
Ġmyel oid
Ġrec al
Ġreplic ated
w orld
Ġgener ators
Ġrespons ive
Ġy ounger
Ġac ad
âĪĴ )
b us
Ġmer c
Ġhydro carbons
Ġsl ides
ðĿ Ĵ
Ġbu ck
ver y
Ġcont rovers
es ium
ðĿĽ ¼
orpor ation
oler ant
ĠSS W
Ġcompens ated
ul er
ther mal
Ġdesign ing
Ġdescri ptions
Ġchimer ic
ĠFin land
ul ed
ĠL akes
resid ues
oc ar
Ġev oked
P l
ĠD K
Ġabsorb ing
ĠRes p
plic ate
Ġund et
Ġdiagn osed
f our
m eth
Ġcho osing
Ġmo uth
ĠR ap
Ġlig ase
Ġol factory
R K
ĠP s
ĠCO N
ĠAtmosp heres
Ġad iabatic
ĠN L
Ġtrans ects
Ġvacc ination
Ġmanag ing
Ġupd ate
ret ion
Ġemphas is
Ġmt DNA
Ġacknowled ged
Ġcontinu um
ĠE co
Ġmo iety
Ġshe ets
Ġelong ated
ĠGE OS
il ent
ĠC ost
e astern
Ġprepar ations
N ew
Ġfail s
ĠPh ot
K a
Ġlaw s
ĠT ropics
Ġmon ocytes
ĠIs lands
Ġsub cellular
Ġhold ing
Ġanatom ical
ĠCam bridge
Ġrestrict ions
b ro
Ġb ic
ĠGen ome
Ġpath ology
Ġbiom ark
Ġal ters
pl ane
Ġby pass
Ġubiquit ous
Ġcare ful
Ġmeteor ology
ang le
Ġp ress
Ġpy ram
Ġst ator
ĠW here
îĢ ĥ
Ġc ros
eg o
Ġdeploy ed
Ġsummar ize
Ġelastic ity
Ġpow der
Ġt ap
ĠAl ong
Ġsurvey ed
Ġvolt ages
bl ast
L IP
ĠF F
Ġset tle
Ġparent s
ure au
Ġrespond ing
ĠE Vs
ident ified
Ġtumor igen
9 00
ĠR od
Ġimpl ied
Ġlow ered
Ġde hydrogen
Ġdes cent
ĠH arvard
Ġd ich
ĠInstit utional
i ometer
Ġinoc ulation
Ġfol lic
uk ey
o ul
Ġexperi encing
Ġinterf ere
Ġm ental
Ġmult il
ĠT ree
Ġstrateg ic
Ġseed ed
rap ies
Ġaber rant
Ġwas h
Ġcan al
Ġbran ching
Ġect opic
Ġprem ature
K L
N et
ĠWith out
on ian
Ġent ered
Ġm akers
Ġtop ological
C herry
Ġrefract ive
Ġlear ned
ĠAcknowled gments
un i
yg d
Ġimm ature
ĠRe analysis
section al
Ġconcomit ant
in is
ĠSST As
Ġsynchron ous
ĠR AD
ĠMar ine
K F
Ġ5 50
han e
ĠFran k
ĠFre ely
M HC
erm ost
t ree
ft s
Ġopp osing
b en
Ġnan o
ĠG SE
G AG
c urrent
t age
ĠP g
ĠCo oper
imp osed
O E
ĠN av
Ġc otton
ĠMar sh
ĠMo vie
Ġdo ing
ĠM V
Ġconven ient
ĠL it
Ġint ram
M AP
Ġle ver
ĠK le
Ġspik es
ĠS and
Ġ3 000
Ġtrans verse
ĠOcean ic
y er
âĢĻ ,
ĠSiber ian
ĠPro te
Ġn av
ky o
Ġreli ably
Ġf ile
Ġ2 40
Ġsett lement
Ġmicro grid
Ġvis ion
Ġelect romagnetic
ĠNP s
Ġtwo fold
velop ed
Ġper mut
ĠLag rangian
co al
pect ives
Ġinvent ories
ĠW F
Ġhe p
Ġver tebrates
Ġtry psin
d istance
Ġus ual
Ġsh RNA
Ġepid em
Ġun w
Ġs orption
ĠH E
cad es
Ġlower ing
Ġanti oxid
ĠT L
Ġbl ind
itzer land
ðĿĳ Ĭ
Ġevol ving
Ġpercept ions
g ra
Ġsc ored
Ġwild fires
c am
Ġuns aturated
Ġreprodu cing
ĠPl ain
Ġc ement
Ġlat ency
Ġ( [
ĠPub lic
H u
ĠR a
Ġcol ors
Ġalumin um
Ġdisc arded
Ġhead s
ĠB et
ĠF er
Ġconstruct ive
ĠV PD
ĠI tal
Ġspect rophot
â ģ
PS H
ĠJapan ese
Ġdemonst ration
ĠStra it
ic ago
21 00
Ġhypothe tical
11 3
Ġdistrict s
ĠT W
ĠI RF
it u
Ġl iqu
Ġpath ological
Ġaff ore
ĠW ell
Ġsuper s
Ġpar cels
Ġphot on
Ġdispl aced
Ġenco unter
Ġtribut aries
Ġsubm erged
id ium
Ġprim ing
Ġmed ical
ĠAnd es
Ġn ick
e q
Ġant ip
ĠIn tegrated
ĠF ACS
ĠApp roximately
Ġgovern ments
Ġtra ps
Ġph yt
Ġf MRI
un ing
in n
ĠFlu or
Ġinver ter
Ġgener ic
ĠApp lic
omon as
atab ase
Ġa ure
A c
Ġneutroph ils
Ġpl ug
Ġincent ives
ind ex
Ġst arvation
Ġoff ered
ĠA ff
Ġseem ed
Ġintrig uing
ĠMAP K
Ġdedu ced
Ġundergo ing
ĠH ospital
ethyl ene
Ġubiquit ination
Ã §
Ġd ow
Ġdown wind
rec ogn
Ġun real
Ġepis ode
or h
Ġcol lo
Ġtra pping
Ġartifact s
ĠI CP
Ġt undra
Ġphot olysis
ĠSe as
Ġme adow
uc cess
ort ical
ĠO N
Ġquart z
Ġun iqu
Ġlet ters
ter ious
12 1
ĠN ormal
ĠFirst ly
Ġprodu cers
ĠCL M
AS P
11 4
Ġoper ates
Ġfl ame
op ulations
Ġn os
Ġend ocytosis
ed s
Ġbov ine
Ġf ur
Ġf ear
Ġh ail
Ã £
ĠD ry
ele vation
ĠQ ing
ĠH all
Ġregular ly
ĠB I
ĠRes ervoir
N on
ĠPan el
17 0
cl usion
C CA
Ġpers pectives
Ġcomplet ion
Ġcrystall ine
Ġcon duction
ym al
Ġloc k
ops in
Ġdepend ed
exist ing
Ġcatalyst s
ĠCD K
C V
ĠM il
Ġpass es
IP CC
Ġmot ors
ĠCa Cl
I m
Ġgraph s
os ures
ĠMar itime
ru b
am y
or f
ðĿĳ §
C K
Ġstep wise
en ess
Ġreview s
Ġrain s
ĠIm p
ĠZh u
ĠKore an
h ar
Ġnucle osome
st at
Ġcons ult
ĠA AV
Ġproblem atic
Ġins ulation
t RNA
Ġcre st
p resent
Ġz e
ĠUn it
ogram s
ut y
ĠA BC
Ġexplan ations
Ġb low
Ġunder went
Ġevapor ative
Ġsw imming
un c
d ashed
f s
Ġtong ue
Ġhierarch y
Ġhyd rate
w k
x ies
im uth
ĠSV M
Ġrecycl ed
Ġdele terious
Ġbiosynt hetic
Ġdiscer n
Ġp u
Ġn ud
Ġmal aria
Ġbe es
on in
Ġr u
el en
ĠP RE
ĠCon cent
ĠJ ackson
Ġfoli age
Ġpharmac ological
h ard
ĠE G
otyp ing
Ġse as
ĠG T
L O
Ġinflu ential
Ġsophistic ated
Ġ iod
Ġtransl ated
Ġm ud
Ġmod ular
Ġrespond s
Ġdischar ged
Ã ħ
Ġb a
ĠDo ug
Ġmod ifying
ifer a
Ġmetast asis
ĠCY P
ĠInd o
ĠC at
ĠH ox
Ġexponential ly
ĠB arents
Ġinitial ization
ent er
Ġge omorph
obacter ial
ĠL eg
Ġint u
ĠS ac
Ġor ange
Ġcat h
Ġsyn apse
Ġsub cl
equ atorial
ĠK v
E CM
ĠM K
Ġmaintain s
ĠBeng al
Ġsal ts
Ġdel ays
ĠTr ust
Ġflank ing
d x
ĠA z
ĠPrevious ly
Ġdesal ination
Ġhand ling
Ġ ith
Ġnumer ically
ĠCol umbia
Ġc ited
Ġt a
ox in
let ion
Ġpar ks
p ower
Ġchem ok
ĠAT M
Ġac yl
in ver
11 8
f r
Ġinterview s
12 7
g rowing
ens able
ĠR us
ĠD em
un iform
Ġf ishes
Ġp yr
ĠS y
a ud
Ġth alian
Q I
Ġbe ach
Ġair flow
umul us
Ġintegr ations
H V
Ġpreserv ation
Ġvill age
s ur
Ġimmun ohist
Ġcoll ision
ef ined
ĠA OT
Ġpoly peptide
ĠSw itzerland
Ġglyc oprotein
ĠG D
ĠInit ial
it ure
Ġpresent ing
B e
Ġaltern ate
Ġtail s
Ġglyc ine
b enz
Ġbi ogas
ĠPP AR
Ġreciproc al
rop s
Ġestim ator
Ġcon vey
ĠCTR L
Ġw al
op oly
Ġp itch
ĠEx cept
och rom
ĠPh osph
ĠN N
Ġse wer
Ġlung s
ĠB K
Ġord inary
Ġpie ce
Ġh oles
Ġaccommod ate
ST M
P G
Ġk Wh
Ġsun light
Ġsplit ting
Ġsub polar
Ġblock ade
H CO
Ġstoichi ometry
ĠW al
Ġdiv ide
Ġtert iary
Ġg land
fflffl fflffl
ru vate
Ġg angl
Ġsp aced
Ġtheore tically
ĠBr dU
ĠT im
Ġhistogram s
ĠCp G
ĠD AP
Ġr ins
Ġevalu ations
Ġ18 00
Ġq PCR
Ġo mitted
ĠFund ing
fer red
Ġplace ment
Ġthalian a
erm ined
Ġintegr in
Ġam ygd
Ġarsen ic
ĠAl a
f ly
ĠMIR OC
G AT
Ġst ar
ash i
Ġdos age
L U
Ġper mits
Ġinert ia
vas ive
Ġmerc ury
meas ured
han ced
Ġd ocking
Ġb is
ĠF ood
ed ical
au er
Ġmach ines
Ġimped ance
ili ar
Ġal anine
Ġschem atic
ĠH U
Ġeng age
ĠSe asonal
Ġd og
Ġal lu
he nt
M Y
l ers
Ġcent rom
Ġpopl ar
Ġch a
Ġstimul ating
Ġas cent
avor able
Ġeffect ors
Ĥ ¬
Ġt agged
par ameter
Ġeutrophic ation
ĠP y
Ġrout ine
Ġw il
Ġphen ol
F or
00 7
Ġre cess
Ġare al
Ġtransform ations
ĠP olar
Ġmet am
ject s
trans formed
cipl inary
Ġsched uling
Ġwebs ite
ĠB F
character ized
Ġavoid ing
ĠG PCR
Ġcent uries
is ite
Ġdispl ace
ĠMong olia
Ġd anger
Ġmodul ates
Ġinvari ant
ĠN AT
ox ic
f ram
Ġinequ ality
Ġre jected
prop ag
Ġno ct
Ġob lig
S ection
ĠClim at
Ġk illing
AN G
Ġsess ions
s ulf
Ġexp end
Ġaer odynamic
an ze
Ġheter odimer
Ġdetr imental
h n
Ġwe ighed
Ġbelow ground
Ġin accur
ĠÎ ¦
Ġsk e
am ent
ĠO per
ĠStr ong
Ġmicrogl ia
ent y
Ġsil ver
Ġcereb ral
Ġent ers
dep leted
c ox
Ġdr astically
Ġskew ness
, âĢ¦,
Ġcass ette
im als
od d
+ .
Ġpost natal
ĠA ID
ĠMart in
Ġduplic ation
ĠRemark ably
Ġcor ner
g rade
C al
up ub
ĠRED D
Ġg upub
ĠH ill
ĠB AL
Ġpos e
yle m
Ġmark s
98 996
Ġ216 98996
form aldehyde
ĠMM E
Ġpie ces
S r
Ġcross es
ĠBi osystems
ym et
Ġsubtract ed
0 25
urb ed
orrel ations
n orm
ĠT ian
ĠPD SI
Ġweak ens
Ġheter ozyg
Ġat tain
end ar
ĠC ro
olit an
ĠSoft ware
Ġdig est
e z
R CP
12 4
y i
ĠPA Hs
ĠK ong
ampl ed
ĠConserv ation
es pecially
st on
Ġvent ric
d ig
ĠTo kyo
Ġex empl
w all
Ġun biased
Ġimmunopre cipitation
ĠG ram
ĠR IP
Ġco uple
Ġn t
Ġharbor ing
ĠWall ace
-/ -
ĠIs ra
Ġqu arter
r ass
vers ions
Ġdi etary
Ġimmun ost
ĠS now
organ ization
ĠSecond ly
bal anced
cel and
Ġhistor ic
Ġc row
m ember
Ġinter neur
ĠU AS
Ġemiss ivity
Ġor al
ĠBrit ish
il in
g overnment
Ġ ðĿĲ´ðĿĲ´
end er
Q iagen
00 6
Ġempir ically
Ġannot ated
Ġbe ar
Ġconver ge
Ġparticip ating
ĠC CL
Ġtend encies
Ġrece iver
in in
ot ely
il a
D er
ĠT max
Ġwet ting
oph ores
Ġexcept ions
Ġcar go
ĠH om
Ġfertil izers
ĠM CM
Ġmot ivated
Ġt ab
Ġra p
Ġprob ed
Ġadminist rative
Ġlogarith mic
pt in
ord ers
m ixed
ĠG AP
Ġb it
imp anze
Ġatt ribution
th ick
Ġorient ations
Ġm aster
n umber
Ġrec all
ĠCER ES
Ġlog s
Ġaux iliary
ĠB erg
cor related
ĠCa rol
pp ler
con f
Ġspec iation
rodu ction
Ġben e
Ġimmob ilized
Ġminim ized
Ġd in
Ġra ising
Ġmon oc
E PS
Ġpres erve
Ġcont iguous
Ġsepar ating
ĠL os
Ġax onal
ĠAc ross
Ġde w
Ġsur rogate
Ġcheck point
Ġpolar ized
ĠN AR
Ġir respective
Ġde generation
ĠH W
ĠQual ity
ac her
âĪ Ļ
ens en
er ia
am inant
Ġaltern ating
ĠE GF
Ġangi ogenesis
Ġh it
Ġt ilt
Ġorigin ates
ĠT DS
Ġpyro lysis
Ġh all
Ġjoint ly
T N
ĠMc C
Ġexc av
Ġsh aped
Ġmethod ological
Ġmus cles
12 3
Ġh yst
Ġimmun ofluorescence
Ġund es
01 0
as ia
ĠEP A
Ã£ o
Ġd orm
Ġpeak ed
Ġrectang ular
Ġflo ating
Ġcons olid
plic ation
Ġsuppress es
Ġpro xies
ĠF S
ĠÎ¼m ol
ĠB O
Ġrandom ized
Ġt il
Ġs in
oth alam
Ġrot ating
Ġ** *
Ġss DNA
11 7
Ġpoint ing
b ra
Ġo ven
art icle
Ġfail ures
ĠMark ov
CM IP
Ġcall s
Ġrh od
bi otic
bor n
ĠG ib
Ġepit opes
as a
Ġdefici encies
chan ical
Ġv on
Ġf idelity
Ġconv olution
ĠSc enario
T H
ĠL TP
14 5
ĠStr ateg
as y
ĠK D
ĠLi DAR
roc yte
Ġagg l
Ġaz imuth
A AG
erm an
Ġcaps id
Ġtransplant ation
Ġdep r
Ġhapp ens
Ġmig rate
Ġbring s
Ġcompet e
ĠP res
Ġprot otype
Ġcor rid
ĠF V
ĠP U
Ġt orn
Ġdisc ount
Ġsimpl er
Ġinform ative
ill ation
Ġweak en
Ġstra w
Ġro se
Ġdisc over
Ġtrack ed
âĦ ĵ
Ġa ph
Ġtun ed
Ġolig omers
ĠER Î±
ĠG a
through put
Ġdi am
pre cipitation
Ġaure us
Ġeconom ically
Ġread er
ĠEth iop
Ġsupplement al
Ġmamm ary
Ġcar riers
Ġobserv able
Ì Ĥ
oriz ons
Ġf le
g el
ĠRober t
ĠN am
Ġswit ches
n orth
obl ast
Ġar ginine
Ġoccup y
Ġhotsp ots
Ġautoimmun e
Ġs aving
us sion
hydro x
ĠB H
ĠF r
Ġphot ons
k ary
Ġcomputation ally
Ġperfect ly
Ġadsorb ent
ip ore
G CMs
i as
ic robial
Ġneuro trans
immun opre
ovol ta
ĠHad GEM
Ġsol v
duc ible
igh ter
Ġconstruct ing
Ġinnov ative
ap it
Ġanalog s
ĠJac ob
Ġds RNA
Ġall ocated
ĠG old
access ed
ĠDav is
abol ic
Ġrear rangement
ĠDiv ision
Ġbal ancing
Ġmeet ing
ĠS ox
N M
Ġlog ic
AD S
Ġth rom
F c
et hanol
Ġoligonucle otides
ĠS ar
Ġe yes
stand ard
R oche
Ġre nal
Ġst arch
ov ing
Ġvap our
Ġn ur
Ġemer ges
Ġin ev
ĠSp ring
Ġsound ing
Ġreconstit uted
Ġs yl
M aterials
Gl c
Ġsub regions
ĠDi ego
Ġconjug ated
ĠD ar
Ġ10 29
ĠSequ ence
ĠRad iation
Ġamph ib
Ġmig ratory
Ġherb aceous
Ġd otted
ĠÎ ½
sc he
Î¼ M
Ġbene ath
Ġw ant
Ġx ylem
gener ated
ac ryl
ma ximum
U D
ans en
o yl
Ġrear rangements
ĠDist rict
00 8
Ġsp ans
represent ed
Ġoligonucle otide
Ġk et
Ġcal endar
Ġanisot ropy
Ġsh rink
ĠT om
com plex
T i
Ġent rance
Ġamygd ala
Ġsub types
com b
Ġne on
ĠJ ames
Ġel abor
opt imal
bas ins
ĠV eget
âĢ ĸ
ĠF ull
Ġcons ent
Ġsemi arid
ĠSupp ort
ow ing
Ġun pre
Ġcarbon yl
n atural
aqu es
Ġk V
Ġover flow
Ġmar itime
al ities
ĠT en
ir t
c yt
Ġenthal py
Ġch ond
ree ce
Ġlay out
Ġpair ing
ell um
ac ulture
Ġfeed stock
ĠP u
Ġrele ases
ĠJ RA
Ġhorizon tally
Ġsho ots
ðĿĳ ĭ
Ġtotal s
Ġradi i
he asterly
Ġin versely
Ġnever theless
oc ard
ĠÎ ©
Ġsuper imposed
ĠB ac
ĠWilli ams
ĠItal ian
s a
y an
ĠW a
+ (
Ġenc aps
ist ics
C ar
se lective
Ġ19 51
ĠO nt
ĠCR U
iet nam
dec ade
part icle
ĠI ber
na ire
Ġsumm ed
ĠC orrelation
ĠStruct ural
ors ch
ond on
ict or
Ġt urning
op ed
iot a
onucle ase
aly zed
Ġscen e
Ġmelan oma
hip s
Ġj ets
Ġhep atic
at ile
Ġg on
cedent ed
ĠHimal ay
Ġa head
iv a
Ġthe rapies
ĠNA DP
ci ous
Ġsoy bean
m u
ĠForecast s
Ġchloropl ast
Ġse ismic
ĠG i
am ura
ĠAtmosp here
Ġcogn ate
ĠFram ework
Ġhemisp heric
Ġcl amp
orient ed
f e
ar um
Ġcor als
ran k
Ġagon ists
f lox
ðĿľ Į
Sout hern
Ġ19 58
ok s
ĠAL S
Ġclean ing
ĠT m
et e
Ġreperto ire
Ġelectroly te
iss ue
T E
Ġover lying
Ġinadequ ate
Ġvacc ines
Ġp he
Ġleuk emia
Ġland f
ĠVis ual
is is
iv atives
Ġgrate fully
Ġdeterior ation
Ġscholar s
Ġc iv
Ġlink ages
ĠA W
I nd
Ġ2 20
oph osph
Ġcomp liance
S at
ĠD rought
Ġth i
ĠParticip ants
ograph s
alt itude
ĠD atabase
ĠL am
ĠBal tic
Ġdiscrimin ate
ĠW et
Ġinsert ions
Ġcont aminant
ĠGen etic
Ġmunicipal ities
ĠJ NK
Ġincons ist
Ġfav our
ĠIll umina
Ġperiod icity
Ġprotect ing
ens es
000 2
Ġind ependence
Ġincorpor ates
ĠTherm o
Ġmot ivation
X S
Ġb imodal
ĠLast ly
Ġtit ers
ke ley
ĠCont inent
Ġbiod egrad
estab lished
Ġanne aling
Ġaccept ance
Ġsymb ols
Ġspe ech
Ġinver tebrates
if iers
Ġh orizons
ĠB ell
ĠG RA
Ġadd s
observ ed
ar ine
it ives
Ġreg ressed
ĠNMD A
rid ge
ĠAn imals
Ġbe ad
ri le
Ġn ation
ĠL inear
Ġrot ated
ĠElect ron
T GG
ĠM CF
Ġdis k
ĠK en
Ġtrun k
Ġcount ies
Ġsupernat ants
os an
ind er
Ġunpre cedented
Ġnucle ic
orsch ung
Ġk Pa
Ġassemb lies
ĠD on
Ġoscill atory
Ġsubs ystem
ĠK i
ĠE GFP
Ġapproach ing
A CC
th ree
ĠIn set
Ġwood land
Ġpredom in
Ġmicrotub ules
Ġas pen
ĠG as
ĠR L
Ġenvironment ally
yr in
pl astic
Ġdetrend ed
T r
at ivity
Ġtransform er
ĠI celand
ĠCh ile
Ġmarg inally
Ġam ide
op rop
p rom
Ġer a
Ġun ity
Ġ19 73
ath ione
Ġswit ched
Ġph on
Î £
Ġcool ed
Â° )
ĠGP CP
v olution
Ġeven ing
ĠS RP
Ġbi ome
Ġfed eral
ĠT ukey
Ġ 00
Ġest rogen
pt op
Ġdecay ing
ĠPak istan
amb iguous
Ġnoct urnal
S EM
Ġest uary
Ġrepeated ly
Ġhydroph ilic
ar ser
Ġc ensus
M an
ĠE t
Ġant it
lu or
lim iting
Ġoverestim ates
ĠS et
di ameter
Ġprop osal
ĠRe al
if iable
ach us
Ġnon parametric
Ġaffore station
Ġsy ring
ag onal
Ġoptim izing
Ġ1 15
Ġun equ
] -
ond es
ĠPD E
Ġvari eties
pr ints
Ġpot ency
Ġper ceptual
Ġdam ages
Ġmir ror
Ġg ent
ĠR oy
an in
ĠW at
M W
in ator
Ġfun g
ĠHist or
government al
Ġc ast
ĠT c
ater nary
Ġprep are
st ud
ish ment
hy brid
ĠA rm
just ed
Ġun su
Ġnit rite
o en
riend ly
Ġa ward
Ġsh ale
Ġfore ign
Ġtem pl
Ġmetabol ite
AN N
Ġpolymorph ism
Ġprop ensity
Ġhair pin
Ġmultip lying
Ġmon key
Ġoccas ionally
Ġnonlinear ity
C i
d T
Ġnas cent
Ġcomput ations
Ġexchan ges
Ġdeg rade
Ġbound s
Ġ10 9
Ġtr imer
Ġpol es
Ġsur plus
Ġcomprom ised
on it
sm all
Ġsymb ion
ĠMAT LAB
Ġpara formaldehyde
Ġtelom ere
at uring
ĠPro cess
ĠSouth west
Ġeng aged
comp are
Ġsediment ary
Ġassembl age
Ġlob e
ve x
C on
Ġelic it
m en
Ġun coupled
ĠIS CCP
Ġchaper one
Ġsp ac
ract ed
ĠN ord
Ġreprodu ces
( âĪĴ
Ġdat ing
us hed
Ġstimul ates
ĠB rain
Ġflood ed
ĠB lue
ucalypt us
S te
Z hang
ĠN WP
Ġbrid ges
Ġsub grid
Ġcy c
Ġformal dehyde
Ġex otic
Ġmosa ic
Ġneed les
H ol
ros p
Ġemot ional
Ġab ilities
Ġs inus
Ġm ul
ĠW E
ra ir
ĠP MS
Ġsil icon
act ic
Ġ19 72
ĠU HI
entin el
Ġphen yl
ĠDe ep
ðĿĲ µ
Ġtrunc ation
ĠE SM
ĠC ong
ĠIm ages
Ġrhyth m
ĠM s
âĪ Ģ
struct ured
ĠV ietnam
Ġdist ortion
Ġch impanze
Ġtransf ers
Ġrem otely
Ġp iv
Ġcoc ulture
ĠNumer ous
M G
ic er
Ġco factor
md pi
ĠRes ource
Ġdoc uments
merc ially
ĠW N
Ġirrevers ible
ĠC yt
Ġspur ious
Ġflow ers
Ġle th
Ġh ub
Com mercial
Ġpyram idal
T D
Ġfl ask
fold ing
achus etts
aps ed
ĠK ol
Ġcytoske leton
ĠS pecific
Ġdendrit es
Jan uary
ĠH ur
pro ducts
Ġclimat ologies
Ġfarm land
ĠBrazil ian
ĠM ET
îĢĥ îĢĥ
Ġdispos al
ĠA le
ĠN EP
Ġlig ation
ĠCF D
ĠObserv ations
Ġrequ ests
ĠR ub
Ġu pl
Ġtetra mer
Ġepiderm al
u o
Ġ2 80
oc rine
Ġme ant
Ġvis c
Ġimmun ization
Ġthreat ened
Ġround s
Ġbubb les
Ġaccompany ing
Ġsp ine
Ġfa ults
G TP
Ġf urn
Ġdisplay ing
Ġsimpl est
M n
k et
iz z
Ġenter pr
Ġn od
ore n
ĠH op
Ġker atin
Ġmin i
Ġre jection
Ġreal izations
ĠC x
Ġhyst ere
le ys
Ġcon ceived
s ignificant
ĠG reece
ĠC RF
Ġdoub led
ucl ide
Ġgood s
oc umulus
ĠSt ock
prop ortion
Ġb reeze
Non Commercial
ĠB E
ĠG ar
ĠInit iative
p ot
âĢī âĢī
d h
v arying
No Der
Ġherbiv ores
Ġcent re
ĠZ one
Ġcr isis
Ġdimens ional
ith ub
ĠU TR
ĠX i
ĠL uc
M a
Ġtempor ary
ĠOcean s
NoDer ivatives
ĠR W
ĠD OM
Ġgen etics
osit ol
Ġbeet les
ĠG N
U M
ag ent
Ġco iled
he imer
P i
ĠM iller
ra ce
Z A
in teg
Ġregion ally
ĠSal mon
Ġd ol
cont in
Ġpro kary
Ġcod ons
µ îĥ
ris k
îĥ µîĥ
îĥµîĥ ·
art ing
Ġstri atum
Ġsupplement ary
âģ ¡
Ġpropag ated
Ġm ant
13 5
Ġdiss ected
Ġantim icrobial
Ġmetast atic
ĠR b
Ġh at
R ange
Ġc ul
Ġoverexp ressing
Ġorograph y
ĠB ost
elf are
it ney
ĠV S
exp osed
Ġpack aging
Ġl ose
Ġcoag ulation
Ġlys ate
Ġcarcin oma
Ġhybrid s
Ġsubstit uted
het ized
Ġhindcast s
ĠCO X
Ġsi RNAs
Ġrub ber
Ġun ambiguous
Ġscav enging
du le
cul osis
ig ration
ĠNO D
Ġparticip ated
D JF
ĠP enn
Ġbound ed
in tegrated
Ġsh adow
Ġwe ir
Ġfragment ed
ĠC orporation
Ġapp endix
ĠAn n
Ġtransp arent
o is
ĠT raining
ĠJ ul
Ġpig ment
b ac
ĠDo ppler
ĠN iger
Ġflow er
Ġprot r
sh own
Ġmar sh
ĠL V
Ġg yr
199 1
pr im
ĠCol l
it in
Ġkil ometers
Ġprogn ostic
Ġfra g
ĠAR s
Ġo w
ĠPh armac
Ġder ivation
Ġrecre ational
Ġmagn esium
Ġth r
il st
ĠB OD
Ġshall ower
ĠForest ry
ly tic
ist urbed
Ġunf avorable
Ġ19 74
hel ical
K endall
ĠC SI
ĠFL AG
j u
P H
Ġperme able
Ġmil k
Ġob sc
orrhiz al
P rom
ĠP in
Ġaqu aculture
os yl
ogen es
Ġdehydrogen ase
ĠO MI
Ġanaly se
Ġx yl
d f
ĠP otential
h ot
ĠC ross
Ġchall enged
ĠI W
d ark
ĠK d
Ġsh aping
Ġview ing
âĢ Ħ
Ġmicrob iota
acchar ides
Ġlum en
ĠU L
Ġhard ly
ĠU s
ĠMal ays
Ġh abit
str ate
b B
Ġbi ogenesis
Ġcollect ively
01 5
Ġveget ated
ort ium
struct ure
ac ity
Ġoxid ase
Ġfluctu ating
Ġ48 8
rop olitan
in ning
it ic
Ġthere after
Ġstream function
Ġimpl ant
Ġobser ver
Ġster ic
ĠHaw ai
ĠB V
Ġquestion naire
Ġmat urity
Ġblo oms
Ġperoxid ase
Ġspind le
Ġcar ries
ĠCl ark
ore r
Ġreduct ase
Ġprot ons
Ġreven ue
ail and
Ġiniti atives
ĠMult i
Ġble aching
Ġsh ield
ĠDep ending
ĠAb out
ĠX en
Ġaff inities
Ġancest or
ĠCz ech
/ )
A nd
ĠA part
ĠL au
Ġinter ception
Ġexcl usive
Ġlabor atories
ic ol
Ġexpress es
ĠY an
ptop han
av irus
Ġrecip ients
ĠE valu
Ġredund ancy
Ġpossess es
ĠCont in
Ġrad iances
ĠIm pro
Ġphylogen y
es ity
ĠPrim ary
13 4
âĪĴâĪĴâĪĴâĪĴ âĪĴâĪĴâĪĴâĪĴ
ĠChen g
Ġcoh orts
Ġmicro environment
Ġdest roy
Ġper ox
Ġconsequ ent
ĠP op
ĠL ID
Ġphot ovolta
l aw
st re
ĠS entinel
gal act
ym b
Ġtransplant ed
as ic
ĠC rit
Î¼ L
Ġhyp othalam
Ġforecast ed
ĠDoug las
Ġform ulas
Ġpestic ides
Ġchron ologies
ĠDe ut
ĠDes ert
Ġadopt ing
pro duct
ĠQ ue
Ġd b
cl uster
ĠC AT
ne ider
M y
Ġde aling
Ġen for
ĠM b
Ġlast ed
en riched
Ġprim e
ĠA x
Ġframework s
Ġf i
ari etal
dec reas
Ġout ward
Ġvibration al
Ġrepress or
w eg
ĠR s
Ġtar iff
Ġc age
um bers
Ġinter model
Ġmed ial
Ġtit ration
Cont ributed
ĠG AL
Ġprop oses
Ġhelic ase
ĠEng lish
ĠT renberth
ĠN r
bre vi
Ġcom mercially
n ote
re ens
ap opt
Ġlitterm ates
gen ome
T g
Ġisother m
Ġcomprom ise
s ections
ĠA BL
os idase
ĠIn teg
T I
Ġunder lie
13 8
Ġcolocal ization
Ġosm otic
G W
int ensity
Ġhapp en
cept ors
c it
ĠB ureau
pl ace
Ġmin ute
Ġdraw back
he dule
ĠGu inea
imet ry
f ted
ĠAn alyses
Ġisot ropic
if olia
ĠSW C
Ġphotoc at
ĠPar is
xi ety
ĠB ow
ĠEr ror
Ġan th
ĠGH z
d ers
ĠD ick
ĠHealth care
ĠF ts
Ġmere ly
um inescence
oc os
ĠVeget ation
FL AG
Ġlast ing
ĠD ynamics
AR S
angl ades
Ġst ead
Ġpersist s
Ġg ear
Ġcon ce
Ġsl ice
Ġlith ium
Ġlaun ched
Ġbif ur
ĠAl ps
Ġpref rontal
in ely
to x
is er
D V
Ġend os
Ġcarbohyd rate
o form
Ġpur ity
Ġcl ades
15 7
Ġmicrob i
rom ycin
ĠFrancis co
inis cent
rel ative
Ġsequential ly
ĠAng el
Ġfundam ent
Ġfir m
phosphory lated
Ġ ic
in er
HR R
ĠMethod ology
r ug
id azole
ĠB CR
Ġend o
ĠN et
Ġhurric anes
Ġpersist ed
Ġh o
Ġtherm ally
ĠSV D
IS ST
Ġchem ot
Ġallu vial
ĠS ong
Ġadvantage ous
ĠS ynt
CH O
Ġtorn ado
ĠS SC
Ġexp ense
Ġmembers hip
ĠS hen
qu ilibrium
ĠNot es
Ġna ive
C hen
or ov
ĠR os
B ar
R V
ps on
p ost
op ically
Ġcontinu ing
Ġinc omp
ar com
f eld
Ġmac roscopic
Ġnest ing
est im
cl a
Q C
Ġgood ness
ĠVer tical
ðĿĽ ½
Ġgra phen
19 89
ĠAlex ander
Ġno is
Ġinterf acial
ĠY un
ĠSim ulations
ole t
yre ne
Ġscen es
W il
in ic
ĠC ycl
ĠMc K
Ġcost ly
P ub
ĠM Hz
Ġinter section
ist ocene
ĠD IC
at oms
o ols
ec ological
Ġdiagn ostics
Ġuniqu ely
crit ical
ĠW UE
ag g
Ġpub lish
ĠN ash
O W
ĠM uch
Ġeigen v
ĠN umber
Ġrem iniscent
oster one
et on
Ġlab ile
Ġdens ely
ĠN one
cad herin
e u
Ġext ant
a round
ĠC ape
Ġminim ization
IS H
r t
Ġgraphen e
Ġt ips
Ġpal m
p A
Ġgro ove
ly s
LIP SO
Ġd ied
ĠSc ient
Ġcry pt
Ġcytotox ic
g rained
ĠQu ercus
ĠP BM
N orth
14 6
ch ol
ĠM us
Ġout going
Ġsett ling
Ġreal ization
ĠH ay
Ġlow land
ĠPet er
Ġfa una
Ġvill ages
ant ic
Ġemerg ency
ĠR ac
ĠRus sian
Ġwhere in
ĠT ri
Ġr s
Ġmut ational
Ġend emic
Ġt ides
ĠT b
ĠTe am
Ġclass ifications
Ġmanif ested
ĠB anglades
ĠG rid
s ent
iz ona
ĠDise ases
Ġmeas urable
l ocation
Ġb esides
Ġquad ru
ĠSO I
g raph
* *
od en
Ġcover sl
Ġcoval ent
U G
Ġmac rom
Ġtrans duced
Ġhous es
c ond
Ġde em
13 7
ĠG ATA
ĠK y
c overed
ĠB am
Ġall oc
ot roph
Ġvisc ous
Ġbed rock
out h
ra v
Ġex erted
Ġprof it
Ġreal ize
ĠY am
Ġsl ab
Ġbase flow
ak ed
Ġseed ing
Ġheter otrophic
Î ¨
Ġde er
Ġchron ology
ĠT min
Ġaer ation
ĠI l
Ġsp ells
ĠH s
Ġatt itudes
Ġepid emic
strict ed
Ġneutral ization
Ġwidth s
ĠR oman
Ġsp orad
Ġencour age
l iquid
g one
le igh
Ġexplo it
Ġhelp ing
os itory
Ġdi electric
Ġrespons iveness
oph ytes
ĠAb ove
V P
Ġra mp
Ġnit ric
ĠT ar
r ison
at han
at ric
f ection
Ġstring ent
Ġhydro carbon
Ġthorough ly
Ġchick en
Ġrelax ed
Ġpropag ates
T ables
ĠGS K
Ġdist illed
it age
Ġtri plicate
Ġimper vious
Ġbl ank
rad or
Ġfract ures
Ġs ib
Ġst ick
ĠSt ri
Ġdiv isions
vent ional
en ching
ĠC t
j in
ac etic
s oluble
k al
Ġvort ices
Ġ7 50
ĠCh ild
Ġrins ed
Ġsouth westerly
Ġmig rating
Ġelimin ating
uch i
Ġlight ing
ĠM MP
Ġgeost rophic
ĠY FP
Ġowners hip
ymmet ric
Ġh ospital
Ġin ward
ne utral
Ġband width
B l
Ġdel im
Ġam orph
Ġtom ato
ĠH b
Ġirradi ated
Ġrod ent
Ġsc hedule
Ġagg ressive
l oc
F F
ĠN ature
Ġse aled
Ġcol ored
C ys
Ġco ch
Ġcal or
ĠH ous
Ġsulf ide
cha ft
Ġsug ars
ĠD B
c oding
ĠMCS s
AM S
Ġde gener
Ġadopt s
cla imer
Ġimport ed
ĠSU MO
ol ab
ĠLL J
I t
in ducible
pr one
ĠA CT
Ġhect ares
ĠE uler
Ġopt ically
Ġinter rupt
OM E
ĠSNA RE
ĠTw enty
ĠT rend
Ġcat ast
D B
Ġchar coal
Ġe ase
Ġund isturbed
Ġcommit ment
th is
Ġsp heres
Ġharmon ics
ĠIsra el
Ġeigen values
Ġnecess ity
mat ched
reg on
Ġinterp reting
me ans
od ia
ï Ģ
Ġburst s
M J
Ġplan ar
w arm
ĠR ES
Ġex erts
ri ent
ĠK I
Ġpr ion
ĠBanglades h
19 79
Ġfisher y
Ġp ests
Ġhe par
Ġtre m
ĠMich igan
ib ration
og le
ĠTh ailand
Ġspecific ations
vol ume
ĠF lood
ĠH ER
og raft
st ra
ĠTy ph
Ġs ong
Ġle ach
ĠSah ara
Ġfol ds
ro d
rab bit
Ġru pt
ĠDis claimer
ĠRegard less
Ġdis claim
rig ing
st em
ĠF orschung
Ġ3 60
U TR
Ġkind ly
ĠM as
Ġult r
ĠEB V
ic i
Ġpro line
mon ary
Ġfl oc
o o
ĠHam ilt
Ġweak ness
phosphory lation
r ally
if ts
Pub lisher
ĠAr t
ĠV A
Ġlab els
Ġinhabit ants
Ġintest ine
Ġl ives
ĠJ ose
ĠP ale
Ġrec apit
Ġadv ective
Ġhand le
ĠU N
Ġreprodu c
Ġencompass ing
ĠForm ation
f eed
Ġresist ivity
ust ration
Ġappropri ately
Ġrib osomes
P CA
Ġper oxide
ĠEA E
Ġcitiz ens
Ġd well
Ġdepart ure
Ġtop ics
ĠH aving
Ġpack ed
Z n
ĠSpe arman
ĠBost on
A la
Ġbe ars
se y
Ġr ipp
Ġpl ains
Ġacad emic
ĠC av
Ġhyd ration
Ġh unting
Ġnam es
Ġ12 9
Ġpen icillin
Ġwe alth
Ġrad on
Ġtens ile
Ġadapt ations
ĠN B
Ġhapl otype
ow ski
Prom ega
Ġas k
ĠP rop
ĠSign aling
ĠF as
Ġover w
ĠCF SR
ann el
Ġp ione
ĠV ery
Ġprote ases
ĠAnt ib
av idin
Ġbacter ium
Ġco arser
Ġtra ins
Ġtet her
ĠF OX
ĠR V
Ġconstant ly
ĠDisc ussion
Ġredund ant
Ġdiff usive
ĠProtein s
ĠL ondon
ĠCh icago
Ġth alam
Ġu pland
Ġswe ep
op ies
Ġg all
Ġsubt ilis
ĠR G
apopt otic
ill ance
r ong
rom y
Ġintern ally
Ġmonol ayer
ĠS SR
Ġge ographically
K D
Ġins oluble
Ġtransition al
Ġd N
Ġis ent
ĠQuant itative
Ġf rog
Ġhapl otypes
Ġmism at
ĠMass achusetts
g ithub
Ġan ode
20 5
Ġ[ (
ĠÏ Ī
ĠSS Ws
ST AT
ĠCom mon
Ġantioxid ant
ĠDi agn
fram e
ĠF ort
âĢĵ /
od end
ĠSO S
Ġlook ed
Ġglut athione
p c
c our
Ġstr ata
Ġde form
Ġcondens ed
Ġdi atom
Ġin versions
ĠB ud
ĠB LA
ĠMet eor
d isc
ĠM OC
Ġmit osis
iv ores
ab in
Ġshore line
Ġmacro inver
ĠC hem
Ġexpl os
ĠMP s
Ġst ressed
Ġgeneral ization
er pen
Ġb ent
Ġsp ines
Ġattract ed
Ġat tained
em an
ĠP it
c us
Ġrod ents
ĠZe iss
E urope
ðĿĳ ŀ
Ġtermin als
ier ra
Ġthym ocytes
le tal
âĪĴ -
W all
Ġtrans it
Ġp ric
G AP
est one
Ġult imate
ĠIn hib
Ġcont ing
sal t
23 1
ĠCont ract
activ ating
ĠReg CM
Ġspontaneous ly
C r
Ġcro pping
ĠD om
ĠN ations
ĠG ood
Ġro l
Ġform ulations
NA O
ĠD TR
Ġgra nd
ĠT f
ĠNeg ative
ĠBel ow
comp onent
Ġsoci etal
ĠIPS L
Ġun g
Ġgran ule
un te
Ġhistor ically
ĠTi O
Ġfam iliar
ĠS ocial
Ġr aster
ĠH SV
cl er
Ġval leys
Ġmes ench
Ġob esity
Ġhydroge ological
ĠN J
Ġdis proportion
Ġlack ed
ĠAs n
Ġdiss oci
Ġgran ules
Ġaut oreg
ĠT Fs
Ġsecond s
con v
ger y
Ġsynchron ized
if ting
ad der
Ġspaw ning
yl van
Ġsupp ressing
Ġrest oring
I nt
at ibility
Ġsur ges
Ġcytotox icity
Ġp av
Ġ10 2
RD EX
Ġsp ores
Ġtrans du
ang ered
Ġnarrow er
3 50
M olecular
Ġrhyth ms
Ġmetam orph
pp e
Ġmes osphere
ĠLab rador
âŁ ©
let t
Ġshort est
ener ative
ĠNe uro
ÃŃ a
ch in
imet ers
ac yl
CP s
ĠShan non
b ore
Ġpattern ing
ed d
Ġter nary
Ġcylind rical
Ġsound ings
Ġsear ched
ph y
Ġhist idine
ĠmA bs
Ġlip osomes
Ġpsych ological
f i
re active
ur ring
ĠM ix
ens ions
ropri ate
Ġra y
ðĿĲ ¾
ĠN IR
ĠA po
Ġonc ogenic
Ġarg uments
ĠM ouse
Ġprim ates
ĠXin jiang
ĠD Nase
ĠO zone
ĠBD NF
Ġgas oline
ĠS ound
Ġlo am
ĠAg reement
Ġtag s
Ġhystere sis
p ic
str at
ĠInstit ut
ĠCh lor
Ġov arian
b ell
ĠTyp ically
ist ical
Ġsc ript
ruct ive
Ġsens ed
ig raph
Ġterm ini
H B
function al
ĠSh ort
Ġreli ef
Ġrec ir
Ġbig ger
ĠR id
Ġa vian
it one
ĠR ange
P b
Ġdes ic
ĠSt ill
p ress
Ġan xiety
ĠSub mission
Ġconstitu ent
Ġis lets
h as
d ried
ĠMary land
Ġv en
Ġsur fact
Ġplay ers
ĠPortug al
r A
Ġ13 5
Ġcomprehens ively
ĠE ST
Ġcounter act
p f
Ġdisapp eared
Ġar idity
ob jective
Ġhall mark
in cip
Ġmechan ics
Ġglut amine
Ġreson ant
Ġfer mentation
Ġskew ed
opter a
EG s
Ġper miss
Ġwarm est
Ġbeh ave
ĠLU LC
Ġconflu ence
sh ine
Ġcor on
Ġtumorigen esis
Ġfavor ing
ĠPer u
ĠL oss
Ġemerg ent
Ġrout inely
ĠF CS
Ġco expressed
itation al
Ġppm v
Ġ âĮ©
Ġbi odies
Ġinterneur ons
Ġd yes
Ġcalcul ates
is en
sens ing
Ġimmunoblot ting
ĠK l
ðĿĲ º
Ġb ad
ĠAR M
Ġelucid ated
ĠG t
ĠDet ection
Ġphotovolta ic
BP s
eh l
ĠInvest igation
ĠCarol ina
Ġthous and
Ġ1 18
Ġsc i
ĠPer iod
Ġo le
ĠCO P
ĠEx amples
ole cules
Ġartific ially
Ġcontain er
Ġb row
tic es
Ġpost ulated
Ġmiss ion
ĠAqu a
Ġsecret ory
plo ys
Ġmosquito es
Ġgran ular
el a
AL S
ro ot
iv ial
al though
Ġamorph ous
Ġd im
ĠW B
Ġremov es
Ġinf inite
Ġtempl ates
Ġrecogn izes
Ġenhance ments
Ġc aro
ĠM CA
inc ub
an ia
ĠT LS
T CA
Ġclin ically
Ġfec al
Ġinflu ent
Ġinternal ization
ĠMS LP
ĠPer haps
Ġpre cip
ĠDe v
ĠR i
ĠT n
Ġacet one
Ġposttrans lational
C Z
Ġg athered
rig ation
ĠGra duate
du e
Ġut er
so ft
ci ence
ĠCal cul
Ġfoli ar
S im
ĠN SC
opro t
Ġfru its
ad justed
b ank
it ably
Ã ¸
Ġsp ite
Ġâ Ĥ¬
ĠR EM
b io
Ġsuper conduct
ĠNa OH
ĠF B
Ġind igenous
Ġcomp action
Ġphe rom
Ġfundament ally
t an
ren ew
Ġspec ify
ĠÎ ĵ
f in
Ġph armaceutical
Ġmut ually
s itu
ĠC ast
14 4
Ġpy ruvate
D G
s d
ĠT IO
Ġdisc ipl
air s
c re
Ġdeem ed
Ġrepet itive
ĠS ed
Ġtuber culosis
ial s
ad i
omet h
ĠH ear
Ġpre requ
AL L
Ġmain land
run off
Ġconfound ing
ich uan
ĠAr izona
Ġsoci eties
ĠGround water
h oles
Ġar rangements
ĠSim ulation
Ġlifet imes
ver t
13 9
Ġleth ality
o e
Ġk J
Ġstabil izes
ect able
Ġnorm ality
Ġstrat ocumulus
Ġcon vex
ĠPT EN
Ġsc reens
Ġcardi ovascular
s aturated
ĠCX CR
2 10
ĠI B
nc bi
ECM WF
Ġpract ically
Ġbe e
Ġnutrition al
Ġanest hetized
Ġro uting
Ġdiscus ses
J AS
rot ron
Ġmyel in
ĠMalays ia
ĠS SS
ĠConsid er
med ian
ĠâĢ¦ ,
Ġd yn
Ġsn aps
Ġstead ily
Ġc up
Ġmicro algae
Ġbiodies el
Ġunder gone
Ġar ms
gen esis
ĠE Cs
ĠFed eral
Ġge ochemical
Ġsynthes ize
Ġse ab
ĠS CF
Ġhorm ones
Ġfor age
ĠA K
Ġemploy ment
Ġsu cc
ĠCG CM
ĠA ge
ran ging
Ġmeth ylated
sim ulated
Ġstakehold er
linear ity
ND VI
zz le
ĠComb ining
L ife
Ġtriang ular
g ated
ĠW C
ĠB ox
Ġnon native
Ġmant le
Ġcoast s
ch rotron
fer t
o i
f used
Ġfe el
Ġhomogen ization
Ġvig orous
Ġe a
Ġdiss em
in y
ĠL ED
Ġcalib rate
Ġarchae ological
ĠSalmon ella
A ll
ĠDet erm
Ġnon zero
l ishes
AS H
âĢĿ ).
ĠPle istocene
Ġpromot ion
ĠLe v
ĠPol l
ĠA H
h arvest
Ġacc limation
flu or
ist ing
SI M
ĠCon cer
Ġbank s
re on
Ġp ace
ĠH end
ĠNo ah
ĠH orizon
Ġh ope
qu in
ĠG rowth
Ġtrans ients
Ġlymph oid
ĠE SS
Ġpolymorph isms
uclide an
l it
ĠF eng
Ġjud ged
Ġcent roid
og aster
Ġem ploys
nl m
ic an
Ġsh a
Ġra ind
Ġpur s
ĠEn s
Ġh its
Ġcol our
ĠY ear
17 5
isp heric
d em
Ġclass ifier
Ġaddress es
Ġcompens atory
J JA
Ġantagon ists
Ġimp rint
Ġcust omers
Ġl umin
19 88
Ġel usive
Ġplay ing
ĠO regon
ĠRay leigh
ĠG rand
ĠHe at
Ġatt raction
Wh itney
ĠEv idence
ĠP oint
og lobin
Ġiniti ating
eren ced
Ġhepat ocytes
Ġcataly zed
Ġneutral izing
L and
t olerant
Ġeth ylene
ĠN ear
Ġdr illing
abil ized
Ġlegis lation
r n
ĠN PC
Ġclos ing
Ġshel ter
ĠCompar isons
Ġexpert ise
Ġtry ptophan
Ġscal ar
ĠN ep
Ġeaster lies
Ġoverla pped
Ġpos es
Ġaug mented
ĠG raph
Ġnight s
bound ary
Ġtransl ate
F E
hal f
Ġbi omes
Ġabst ract
Ġstrom al
Ġen orm
ĠRes olution
cool ed
Ġmitig ating
c ine
Ġl amp
Ġexp ans
âī ł
ys iology
ul os
w hen
Ġhom ogenous
y roid
Ġch ip
v able
ĠF ish
Ġintr ons
Ġwar rant
ĠK S
ib r
K II
Ġre taining
Ġun ex
Ġhist ories
Ġprolifer ative
ĠS EC
âĢ² ;
com put
Ġnorm s
ĠRe view
Ġrem edi
Ġfresh ly
ĠK in
w ich
ĠM N
Ġreact ors
ĠT arget
Ġemphas izes
on ate
ĠA reas
Ġconjug ate
Ġblo om
role um
Ġco immunopre
Ġrem n
Ġnm ol
ĠAll en
gl acial
f ast
plast ics
c as
ĠU AV
Ġplan et
R ed
Ġa pert
Ġdef ol
Ġhect are
Ġsubst ance
M ar
19 0
Ġvol unte
ĠEd itor
13 6
ozo ic
Ġto tally
ĠComb ined
ĠA Z
ory lation
ĠL ate
ĠL ew
Ġexam ines
m el
Ġis omer
ĠPart icularly
Ġrepro gram
Ġrain storm
ol ite
ĠA Ch
c ondition
in jected
Ġam el
adapt ed
el astic
Ġsl ide
Y S
d ong
am ic
ĠG PI
ĠNe ither
ig s
Ġmy ocard
est ation
Ġinf erences
Ġunc over
ĠXen opus
Ġgroup ing
onit rile
os kins
Ġsynchron ization
Ġm oth
19 87
Ġlys osomal
d b
Ġsearch ing
ĠB AC
ĠStatist ics
ol ving
ĠN LR
m ade
Ġcle ared
onge vity
bac co
b ird
Ġindu cible
Ġdistinguish ing
Ġbott les
Ġprecipit ated
ĠL ac
Ġpl acing
Ġmes ocos
Ġsyn apt
Ġretrie ve
Ġco expression
Ġprote olytic
Ġeng ines
Ġsurv iv
hen yl
Ġimpact ing
ier ce
ĠTrans port
Ġwave form
ĠRP E
P ad
Ġt ied
Ġ2 10
Ġpre existing
Ġrating s
ĠP AN
ĠCloud Sat
Ġbund les
ĠK h
Ġunreal istic
ĠN ik
ĠJiang su
B o
Ġdes orption
Ġan te
Ġm ast
A X
ĠM aterial
ĠA h
cell ence
Ġcapac itor
ĠC TC
ĠP ers
ĠK CN
Ġp c
ĠE nt
Ġinter molecular
ĠCh rom
ub es
Ġpreced ed
ĠM ain
Ġgeomet ries
Ġmarg ins
s ylvan
Ġconver ting
resid ue
Ġcollect ions
st ory
ĠV ictor
Ġrel ied
M on
ros ion
Ġan ions
ĠR at
Ġobser vers
h ots
ĠS ep
od imers
od a
ra k
ĠB or
Ġfibro sis
ĠCW D
ĠE E
ĠB ack
and a
Ġ4 000
recogn ized
ost at
ion ized
Ġint ention
Ġinter connected
Ġexp orted
co il
h ost
Ġle ptin
ĠS olar
Ġutil izes
C Y
ĠS in
Ġab rog
Ġlag oon
ĠOnt ario
if ted
Ġsuper family
Ġextract ing
dom ains
ĠMY C
Ġb old
ĠR est
up el
ex per
Ġar throp
Ġs ister
m ult
al one
ĠM LD
om ass
Ġ 0000
ĠMarsh all
ib us
Ġg ather
Ġfibr il
ĠVal idation
ĠI Q
ric ity
Ġdivers ion
ĠT et
ĠG ln
inc eton
s aving
ĠI KK
ĠS ichuan
ĠF unctional
NO AA
Ġend ing
Ġpregn ancy
Ġthermod ynamics
ĠW I
Ġpric ing
d on
Ġde uter
ĠZ heng
ĠCD R
ĠPD Fs
Ġre ject
ĠCO S
ucle in
Ġec oreg
AC CM
ly mp
ĠCA LIPSO
Ġproceed s
ar rest
Ġmeth ionine
Ġtr ich
Ġsuccess ional
ĠA RF
Ġec ologically
ĠBer keley
Ġc ard
ĠR AS
sh oot
ĠC Î±
ER K
ĠInit ially
t hens
ĠÎ ¾
ĠCh i
Ġregard s
n ia
m yc
Ġr he
ATP ase
y cle
Ġ12 8
M in
Ġbroad leaf
ĠBR CA
yn chron
onal d
Ġcath ode
ĠG Pa
Ġv ein
Ġgrav itational
Ġ5 000
Ġtra ding
f ol
00 9
ĠI E
ĠÎĶ G
Ġcon es
Ġnud ging
ĠCN RM
ĠMa jor
on ing
ĠT ang
Ġ 000
g lobal
Ġdet ergent
obl asts
Ġmelan ogaster
al ine
Ġsl ip
Ġcons ume
ĠL ES
Ġaccum ulates
ĠS em
vious ly
Ġel lip
fact ors
R Î±
14 7
ĠAl z
Ġle ucine
ĠCT D
Ġinver tebrate
Ġcovari ate
Ġcontrovers ial
cox on
Ġ( %)
Ġfac ed
Ġf et
Ġg iant
rad ition
Ġt rout
pl ings
AT ION
ĠPAR P
Ġbiotin ylated
acryl amide
Ġdisper s
Ġsuggest ion
um a
Ġhist ological
ot yl
ĠUl t
ice a
Ã ¨
ĠB ir
id ents
Ġwork ed
G ly
ĠT em
Ġsurv iving
Ġinherent ly
in ia
Ġappear ing
Ġin app
Ġnan ot
Ġdial y
hes es
Ġortholog s
Ġign ition
Ġtoler ant
st ained
iff erent
âĪĴ (
Ġsubp opulations
g ar
e a
Ġimplic ation
Ġclar ity
Sm ith
sh ift
Ġgl ial
Ġform ations
Ġprim itive
ĠW aters
str ong
Ġent ities
trop osphere
ĠV en
Ġextrap olation
T RA
ĠV H
ĠUn certain
Ġsear ches
Ġpro s
ĠSc heme
Ġg ets
Ġan v
20 2
Ġdra ined
ĠE CS
CC C
Ġdisadvant age
re stricted
ĠN it
id o
Ġcar b
Ġbal ances
Ġin activated
with in
ul i
Ġco ales
LD AS
Ġbed s
Ġr im
p es
pt ides
ĠK ai
c aus
oc arbon
G CT
ðĿĳ Ĥ
Ġcontribut ors
pept ides
ant a
Ġd ot
Ġat he
ĠT as
ĠS CN
ĠComp et
ra ndom
Ġcur l
ĠPhilipp ines
S NA
ic ides
Ġexp osures
it ting
ĠW M
ĠAF M
ur ry
ĠC orn
15 6
P AR
ĠE uclidean
me able
Ġadip ose
Ġoverw hel
p oll
Ġpenet rate
ðĿĳ Ī
Ġun labeled
Ġadhes ive
îĥ¶îĥ¶îĥ¶îĥ¶ îĥ¶îĥ¶îĥ¶îĥ¶
ĠApp lied
Ġas part
am ers
Ġrap amycin
ĠC hemistry
Ġtub ulin
ĠT OP
ĠDS B
cell s
ĠD EN
Ġd ere
ow s
ĠSc ott
Ġheart s
Ġearthqu ake
Ġs ort
ĠP SA
Ġestab lishes
bre eding
ĠProf ess
x x
Ġcold est
NI H
ĠA k
Ġencompass es
ĠM ol
rit is
Ġcat alog
or se
Ġm ist
Ġqu enching
Ġmaxim izing
ce in
Ġcrystall ographic
ER C
Ġpoly ethylene
last ing
Ġpenal ty
Ġrecre ation
Ġin efficient
os w
Ġsub script
Ġdeco upling
Ġinher ited
16 5
ĠM r
ĠF il
Ġdeep ening
v ir
flu x
bo ok
E U
ĠIber ian
ah l
propag ating
lu x
ĠStri kingly
Ġdo x
d oc
Ġdis hes
Ġsusp ensions
ĠF K
old ing
pir ical
Ġalong side
ect ively
ature d
Ġopen ed
Ġw ish
st ro
Ġdepos it
Ġcultiv ars
ĠR M
* ,
H M
ĠM ount
Ġrep ressed
ros pective
Ġtox ins
Ġcyc lo
Ġd augh
Ġper c
Ġsc anned
Ġfl ume
Ġp N
Ġg a
Ġdis h
Ġappro ached
ĠSc ots
Ġalign ments
Ġp M
Ġconf ident
predict ed
Ġcow ork
ĠP LC
Ġimmunopre cipitated
Ġdr astic
ok i
ðĿľ ĥ
Ġretic ulum
r atic
ro ad
Ġqu ies
Ġadv ected
ĠORF s
ĠRep ort
Ġdisplace ments
âĢ ł
vol tage
Ġdimer ic
W L
Ġcataly ze
Ġamel ior
al anine
ĠR OC
Ġsh r
Ġstro kes
ĠE ight
rol ifer
ĠSens itivity
Ġl ongevity
ow a
Ġsun shine
Ġgran ul
ge o
w art
al is
ĠB ey
Ġbelief s
ĠEcon omic
ĠArg ent
ĠB lood
16 9
ĠE MS
Ġinf erior
ĠArc GIS
W RF
Ġtop soil
ĠArch ive
ĠcDNA s
Ġbiofil ms
ĠPh ysical
âĢĵ/ âĢĵ
Ġst ores
Ġd iod
Ġh ills
01 6
Ġc oded
ĠS ierra
Ġneurotrans mit
Ġsuper vised
Ġh ors
yl ate
ĠM BL
Ġb ats
ĠProb es
Ġall ometric
he at
ĠS AC
ĠB t
Ġphosphory l
A O
ĠCH O
forest ry
w aves
MP s
Ġcalc ite
ĠF ormal
ĠâĢ ¢
Ġduplic ate
ur istic
Ġelect rop
Ġjust ified
ĠAnd rew
Ġsupers aturation
ĠWell come
ĠÎ £
vi olet
romy ces
ĠEX P
as c
Ġsan itation
ĠGTP ase
Ġvit amin
Ġdeep ly
Ġcoexist ence
iz oph
ap ter
Ġbott len
Ġsurv ived
Ġcit rate
Ġas certain
c hell
oph y
28 0
obacter ium
ĠTreg s
lim atic
01 3
Ġpul monary
ĠNADP H
ĠInter governmental
A E
ĠP SO
ĠL ibrary
oper iod
Ġimmunost aining
ri o
op ing
ĠK now
Ġavoid ance
Ġcowork ers
g rant
opath y
Ġacceler ating
m etic
T CR
Ġsp ars
Ġcomplement ed
y u
ĠU B
enc oded
ĠGen es
ĠEc ological
ĠHart mann
it ated
ĠAM V
T o
ĠG h
otyp ed
ĠSam ple
Ġex ergy
Ġlogarith m
yst al
Ġref ug
Ġex tern
H E
ĠCol lection
ĠO mn
Ġsurve illance
ĠA TR
Ġair way
0 24
ĠAs h
Ġtr uth
Ġ18 50
ĠChar acter
Ġon t
Ġg lands
at ra
Ġfl oral
ĠMeasure ment
ub o
Ġact u
ĠB inding
Ġds DNA
Ġpiv otal
g t
ĠW TP
13 1
Ġsettle ments
m t
. âĢĻ
Ġover lo
ĠI CE
ĠS SM
mut ant
EM D
d aily
Ġsp or
w s
ab ove
ĠM ach
Ġnois y
Ġphysi ologically
char ged
ĠRep resent
A NOVA
Ġasympt otic
Ġant s
ip ot
ĠDeut sche
Ġst agn
ĠDirect ive
AC h
S s
und ity
ĠW m
Ġbi osphere
Ġevolution arily
Ġc able
as p
Ġod ds
ĠCom plex
ĠHad CM
ĠT al
ig e
16 6
ĠW inter
u v
Ġthym us
ut ely
Ġequilib rated
Ġdisappear ance
Ġprompt ed
Ġlar ch
Ġp S
ult y
ag greg
Ġmiss ed
ank t
D N
ĠTer ra
Ġabst raction
Ġres ide
Ġcros so
is ol
ĠS AP
ĠAnt i
ĠS AS
Ġconcentr ate
ain t
Ġmetall ic
ĠMut ations
ĠSubsequ ent
Ġunus ually
Ġcon du
Ġ19 30
0 35
Ġsh ips
Ġfind s
ĠFI TC
ĠAlz heimer
ag rass
A AT
reg n
Ġconverg ent
Ġerr one
Ġc am
comp et
ĠCl p
ĠP ass
f illed
onucle ar
Ġassoci ates
Ġtradition ally
Ġpad dy
Ġannot ation
Ġbid irectional
Ġqu in
Ġriver ine
R NP
ĠK at
b ul
P FC
un ters
Ġmot iv
ĠGIS S
ĠM ari
Ġcapac itance
ĠClimat ology
Ġarch ive
ĠD s
Ġwave forms
Ġimmun ore
ĠEv olution
14 8
Ġor ch
Ġco at
Ġpr imate
t im
Ġorgan elles
so ut
Ġlum inal
ĠA RI
ĠWil son
ĠP CC
Ġk ines
Ġsil vic
ĠM SA
Ġwork sh
Ġbl ots
âĭ ®
ins ically
22 2
Ġurg ent
with out
SI C
A mers
Ġtru ck
Ġc ran
Ġra ce
ĠT HC
isc ons
ad ir
dis ciplinary
ĠGo ogle
r ons
Ġass ets
Ġrep rint
ogene ities
App lied
Amers ham
ign ment
Ġspect roscopic
s il
ump ed
Ġoscill ator
Ġpar alog
ĠS NO
Ġwilling ness
Ġ19 48
Ġadd itions
W W
ĠHy brid
ĠPSI I
h ma
01 2
le g
Ġorgan ics
po or
Ġ id
Ġun correlated
SO N
ĠM BP
ĠSt rat
ill o
Ġcoll ocated
Ġper t
Ġass emble
weg ian
n ay
he ight
19 81
Ġsimpl ify
iscons in
s ided
Ġq RT
ĠE PR
il ateral
Ġhypox ic
Ġsp ons
reg ional
Ġge o
ĠPl ants
cha romyces
Ġh ing
15 9
con cent
Ġbore hole
Ġend osomes
Ġsa plings
Ġmill enn
ĠA UC
ud i
ari um
ĠJ un
ĠPlan ck
Europe an
ĠPal mer
H g
ro om
Ġhous ed
l am
ir ty
Ġbroad band
ĠIg M
Ġgraph ical
ĠB ru
Ġdissimilar ity
Ġsubsid ies
Ġtheore m
ĠFA O
ĠBAL B
ĠPe ak
Ġdiscontin uous
P B
own ers
ĠDen mark
Ġplate let
t ure
Ġrepl en
Ì ĥ
ĠF ast
Ġbut ter
Ġ19 65
D o
ĠF ront
Ġinsight ful
ĠFl ag
Ġpl ur
ick ing
Ġbil ateral
ut z
Ġsub type
14 2
Ġh i
od o
Ġevery where
inc ome
Ġp g
ur in
ĠO V
Ġb orn
Ġg amet
ard ing
lig and
Ġsc ler
ob le
Ġbacter i
Ġretain s
G AL
Ġs elen
Ġclear ing
Ġpartition ed
Ġcoincid ed
Ġt ried
ĠObserv ed
mic ron
il ly
ĠS LA
Ġsc oring
Ġsw elling
f lood
H ad
th an
Ġantit umor
ĠHear t
osens ory
ĠE MD
Ġpar am
Ġlo ess
Ġ19 69
Ġno on
Ġenhan cers
ĠEc osystem
Ġparad ox
ĠH K
sylvan ia
ep ing
Ġmalign ant
T CC
re ne
om agnetic
Ġg ust
ĠP AS
14 3
o A
main ly
Ġfluor ide
u pper
Ġout lier
eme ins
Ġdepr ivation
ĠIM ERG
m RNA
cul ature
Ġlong term
ĠSum mer
u els
Ġstreng thens
P BS
ĠG er
Ġglycos ylation
man uel
Ġfor k
ĠS ER
oc oc
Ġquad rat
f ix
m us
Ġbiof uel
Ġw elfare
le vant
Ġprecip itable
f icial
Ġp ap
ĠS NR
Ġaltern atively
ĠB ottom
Ġd T
and ina
Ġre organization
Ġresemb ling
Ġbenz ene
CA P
aren cy
f c
Ġt ur
Ġne ck
Ġlinear ized
Ġincent ive
Ġmess age
emeins chaft
ĠPr ism
Ġthick er
elect ro
Ġsporad ic
Ġciv il
Ġ urine
Ġb end
oxid ation
Ġth ings
sis s
Ġref rig
Ġaband oned
Ġdepend encies
Ġpeak ing
reon ine
ĠP d
Ġallevi ate
Ġlock down
ĠO X
19 82
ĠCon v
Ġproject ing
Ġserv ing
ĠSch neider
Ġn ests
Ġsupp lying
Ġbring ing
mi R
ĠR EF
ĠH G
er ae
ist ure
Ġtill age
is cher
ĠRe ad
ÎĶ G
Ġser a
ĠRP MI
ug g
Ġcoc aine
Ġexpend iture
Ġc ilia
A K
Ġs ure
ĠP SC
ĠD ing
Ġre w
hu a
AD P
Ġutil ities
Ġph y
ĠP ot
Ġquad rant
Ġgal act
ĠÃ ŀ
ĠRand om
Ġvir ions
ĠE EG
Ġsub c
Ġdet rit
ĠD na
Å Ĥ
h abitat
Ġmunicip ality
ĠC CD
âĪ ļ
Ġ) ]
Ġcont ra
filt ered
Ġl ac
Ġsound s
Ġcort ic
Ġfal cip
ĠThrough out
Ġball oon
ĠP ole
Ġun ified
Ġtang ential
ĠA TG
ac ia
ĠD ra
Ġsch ools
G e
Ġw orms
om ent
Ġas cribed
ĠP IN
Ġpl acent
ĠG PR
ĠCoast al
cl amp
ĠM ap
Ġlocal ize
Ġintram olecular
ĠG ao
Ġnic hes
2 40
S yn
d in
Ġinter comparison
Ġco ff
Ġphot operiod
T O
L uc
ĠIP O
mid dle
Ġst alk
Ġk ill
Ġant enna
Ġaim ing
Ġbip olar
Ġgyr us
ĠD ai
P ol
Ġprogram med
Ġpl aque
Ġresol ving
ĠMo ore
MA X
long itude
Ġscan ner
ĠM PP
Ġmedi ators
Ġdec ays
ĠHous ton
A H
ĠEthiop ia
Ġpr iv
Ġnick el
Ġto bacco
arbon ate
Ġtribut ary
re ferred
Ġcarbon aceous
G CC
Ġh ab
od on
Ġcong ru
15 4
Ġoper on
ist ine
Ġbackground s
p ent
Ġsupp osed
Ġcontext ual
Ġundet ectable
Ġt s
rastruct ure
N B
ĠGen omic
mitt ance
Ġrest ra
Ġc ess
rair ie
Ġim idazole
ĠP il
ac a
Ġinterpret ations
S LP
Ġfl ushing
Ġprerequ isite
Ġtra cing
m akers
ĠB ering
Ġdi atoms
Ġd ent
imp act
ĠForschung sg
ĠB ul
Ġanisot ropic
ĠG ran
ĠV II
ĠImp act
Ġenorm ous
ĠW isconsin
Ġ19 40
l ler
Y R
ĠF ra
Ġeth yl
ĠSh h
ĠTRI M
Ġvari abilities
Ar g
Ġbig gest
n ort
Ġse iz
âī ¡
Ġexc ision
ðĿľ İ
Ġgeomet rical
Ġnecro sis
Ġspec ulated
ĠT ax
Ġth iol
Ġval ves
o a
Ġam end
Ġorder ing
ĠForschungsg emeinschaft
f p
as mon
Ġinf usion
Ġrhiz osphere
Ġsav anna
Ġintegr ates
Ġto lu
ĠE missions
ron i
Ġdehyd ration
ĠOmn ibus
ĠLu o
Ġintellig ence
Ġsolv ents
st ant
ĠB ran
Ġfung us
ĠC PC
ĠG il
Ġrain forest
Ġintr insically
Ġsatis faction
Ġunc overed
ĠSh i
Ġstack ing
l oss
V D
âĢ² .
sim ilar
col umn
ĠR og
ĠV ersion
odd ard
ĠM ek
cor responding
E c
ut ian
Ġac etic
urn er
Li u
e ff
Î Ľ
Ġpro hib
ĠM em
Ġnonc oding
j p
l iances
ist em
Ġshed ding
ĠM LR
ru e
ber ry
ĠNe v
ĠPost doctoral
Ġquant iles
5 49
s us
A m
C ell
ĠF E
Ġmedi ator
ĠCl in
Ġbuff ers
ĠU nt
Ġencour aging
Ġdescri ptive
m ia
M odel
15 1
Ġprior ities
ĠA U
ores cent
dis per
Ġun ivariate
Ġunp redict
uk h
ĠGe ological
Ġpro spect
sc ape
EP A
Ġbud ding
Ġ2 60
Ġcha otic
Ġv ag
ac id
ĠJ oint
cription al
Ġcardiomy ocytes
U b
B W
com ings
Ġdi ets
ron ic
Ġm erging
IC E
ap onic
Ġtr im
AP P
Ġmet ropolitan
Ġanalog y
Ġfec undity
phen yl
v ivo
ĠF am
/ .
b est
18 7
ĠPenn sylvania
Ġresil ient
c yst
ĠR oot
ĠWh ole
ol is
ĠG ag
Ġcl ath
Ġmask ed
Ġcategor ical
ĠEs pecially
Ġper ce
Ġ0 2
ĠL ater
ðĿĳĸ ðĿĳĽ
cir c
Ġ1 16
ĠI ÎºB
Ġmicro climate
Ġreact ivation
ĠC AS
Ġbiot a
uls ive
Ġexc ised
ar l
ed y
ĠSm ad
Ġh omes
ĠQing hai
Ġal arm
Ġinf ant
Ġens ured
Ġend angered
Ġexception al
Ġup grad
Ġ19 68
ĠV ar
Ġthermod ynam
SI S
siss ipp
Ġst all
Ġker nels
ĠJ ur
)/ (
ett es
Ġinert ial
ĠHyd ro
ĠW HO
og ging
Ġsu ction
Ġchol erae
u z
s pec
ol ian
ĠAV HRR
ĠLit tle
E BP
Ġextern ally
P he
Ġfor th
Ġ2 30
amin ergic
Ġloc ate
Ġh oney
ock s
Ġrobust ly
Ġmob ilization
A CA
ĠS ections
n ett
ĠT issue
ĠM ah
Ġpresum ed
R a
ĠA KT
ĠI MP
ur ate
Ġmanip ulations
Ġnav igation
Ġapert ure
Ġimmun ized
Ġbag s
ig ue
Ġpost doctoral
ĠGeor g
id is
ĠEn v
Ġprote olysis
ĠmTOR C
ĠQ TL
Ġneurodeg enerative
ra pped
Ġun resolved
Ġunders c
el ibrary
l act
ĠTa q
Ġme iotic
Ġpar sim
ob i
ĠF W
kin ase
01 8
R G
Ġinter t
Ġdr ip
Ġre ally
ĠP hen
Ġanch or
Ġde ionized
ĠEx cellence
ĠRap id
Ġhotsp ot
Ġshort ening
od omain
Ġtravel ing
Ġppt v
Ġcan opies
ip el
environment al
Ġt one
Ġconce iv
ĠM IT
ĠCar l
Ġcharacter izes
rig g
Ġcollect or
Ġanticip ate
ï ĥ
Ġco oking
fold ed
syn uclein
Ġeduc ational
Ġexp ands
Ġcur ved
Ġdev oted
Ġinter specific
17 2
ĠP J
ĠR an
ĠPr P
ĠT am
ex in
Ġguid ed
inform atics
Ġf res
ro ids
ĠP AC
Ġshort comings
ĠAMP K
Ġneon atal
R eg
Ġwh ilst
Ġphot od
Ġmim ics
gan ese
Ġmicro flu
Ġun identified
SO D
ĠWilli am
L N
F isher
ĠM ot
Ġrec urrence
Ġoligomer ization
ed a
or in
lin elibrary
âĪĴ /
ĠBu ilding
Ġw alk
yn e
Ġmon t
Ġdra wing
Ġ13 7
g ut
ĠNor wegian
C y
av age
are r
Ġdischar ging
Ġa est
m ac
Ġpot ato
ĠP CM
ĠC amb
l ay
Ġre lying
ile yon
T yr
Ġper mitted
Ġflu vial
Ġbare ly
Ġdiss ociated
otox ic
ĠGABA ergic
in oc
un k
eth ylation
Ġt ack
ĠR n
Ġal ien
Ġapp liances
Ġpr int
Ġhydro static
ve get
Ġdefol iation
Ġ2 70
Ġw rong
el ve
ĠI WC
ĠAl g
19 70
Ġtransform ing
M F
M ill
claim ed
Ġchimer as
ileyon linelibrary
Ġrep ository
Ġexceed ance
Ġthunderstorm s
ĠFlu orescence
Ġroof s
ĠMe chan
Ġsatisf ies
IS M
re ceptor
Ġmulti year
Ġopin ion
ĠBiom edical
ĠH H
ĠO lig
Ġischem ia
or um
ĠE uro
enc ia
Ġsem icon
ĠW ave
Ġcour ses
Ġpeat lands
ĠCRE B
k B
m ond
Ġimmunohist ochemistry
ĠT CA
ĠCon n
ĠDise ase
Ġre form
Ġalle lic
Ġinstrument ation
Ġd yst
ĠF AD
Ġd y
Ġwarm ed
ĠI le
gen es
ĠDes ign
Ġrupt ure
ĠSc andina
Ġtens or
s n
ist on
Ġrational e
Ġob l
Ġpack ages
Ġreproduc ibility
Ġop ens
ĠT CC
con serv
Ġpolic ym
Ġw ileyonlinelibrary
Ġag ency
p us
ĠG ill
Ġsur gery
ĠAm b
Ġisent ropic
Ġdistinct ly
ĠCo ok
Ġremedi ation
Ġse agrass
ĠLaw rence
Ġm ent
cell ulose
Ġtel omerase
Ġam plic
de veloped
Ġp ri
Ġcaus ality
Ġsuper position
ĠB rad
ĠK an
Ġaliqu ots
ĠFT IR
sissipp i
Glc NAc
ĠEditor ial
Ġriver bed
out put
Ġneu rological
izoph ren
Ġdr iest
Ġtra ced
Ġmus s
Ġann ular
gluc ose
Ġder iving
od ec
Ġrele asing
use um
ĠForest s
ĠBel g
PS C
ĠM U
Ġspat io
Ġseem ingly
Ġfalcip arum
ĠExt reme
Ġto oth
Ġserious ly
Ġherbiv ory
Ġmangro ves
ĠComput ing
Ġimpl anted
Ġepis odic
Ġfibrobl ast
target ed
ĠAQ P
Ġcotrans fected
âĪ ¥
f ir
S N
p otential
w i
Ġrid ges
xim al
Ġlet ter
ĠDS Bs
Ġgu an
Ġxen ograft
Ġdisc onn
Ġplan es
ĠâĢ °
Ġcarbohyd rates
ĠInvestig ator
Ġultr ason
y ang
Ġhapp ened
ĠOT Us
pe x
Ġinoc ulum
Ġretrov iral
oc hem
Ġpul p
l on
ĠG lob
inf rared
R as
Ġcoff ee
f ive
Ġbin omial
ĠSch mid
Ġf atal
Ġden aturation
or ters
Ġdisag reement
P ET
ĠS AGE
Ġhom odimer
Ġoverl aps
ah n
C d
ĠS PSS
CO M
Ġstud ent
ino is
19 86
m ap
01 7
Ġinteract ed
Ġsymmet rical
effect s
ĠCN N
Ġstrept avidin
Ġun recognized
Ġpel agic
ĠSt arting
uk e
ðĿĳĸ ðĿĳĹ
Ġphosphat idyl
ol ating
LI OP
ĠRober ts
Ġcart il
Ġav en
Ġan oxic
s ha
r ors
t ag
ĠF arm
Ġgra ft
bel ow
Ġn ig
Ġspectrophot ometer
Ġaut onomous
ĠAngel es
Ġse pt
ĠG BM
ĠWe i
17 7
ĠAM L
al i
aly st
ĠNF AT
Ġextrap olated
Ġunder pin
Ġvolcan o
ĠRy R
Ġb ac
ph arose
Ġqu enc
ĠO E
co ord
Ġdisag greg
ĠTur key
d iss
Ġoff line
v ens
01 4
Ġra il
ĠO RC
Ġar ith
ĠPC NA
er ting
ĠP OM
Ġ \
sc ore
Ġvis its
Ġpent ad
Ġmicrobi ome
u ingly
Ġimplant ation
Ġtransp arency
ĠServ ices
ĠAd apt
Ġdecomp ose
Ġf an
Ġcereb ellar
Ġepoch s
Ġtherm o
CO D
Ġneutroph il
fer roni
Ġa rose
Ġp ier
Ġ3 20
ord on
Ġnucle osomes
Ġhazard ous
deg ree
Ġs ial
Ġread ings
Ġc hel
ĠA AA
ĠO wing
Ġsomet hing
TP s
ĠCF Sv
16 7
ĠSus tainable
Ġde central
Ġext ents
Ġ( Â°
ould er
R n
ĠN ic
ĠG SH
Ġsubstit ute
ĠYun nan
Ġcomp ressive
Ġcataly zes
NK T
ĠR AN
Ġmyc orrhizal
Ġiss ued
ĠCons ist
lor a
Ġherbiv ore
Ġ1 12
), [
Ġeconom ies
Ġcrack s
ab a
Ġmon oton
Ġmultid imensional
Ġa ster
ĠH um
oc omp
se ver
Ġinvestig ators
Ġm oney
15 3
ĠTNF Î±
Ġcar box
wh ite
ĠCd k
trans fected
c ount
ĠR ivers
Ġefflu ents
s ystem
ĠKu ros
D Cs
Ġtr uly
ĠCo ul
ĠC ai
Ġpr istine
Ġcert ification
Ġnon in
w ords
mit ting
ĠAlt ogether
ĠMIS R
f lo
ĠRec omb
ĠG ray
or ative
ĠGW s
ĠT SI
ĠW R
Ġacc ident
ĠPl us
Ġextens ions
Ġground s
ot ropic
Ġsh aking
Ġsynchron y
b is
19 85
Ġmicro plastics
Glu R
ĠPseud omonas
Ġhepar in
b all
Ġran ks
Ġcle ft
ig g
ĠApp lying
Ġterrit ories
ex c
Ġreason ed
ĠNumer ical
Ġreason ing
ĠImage J
e fficiency
Ġinter conn
Ġshe ep
we ak
ra pping
Ġa pt
Ġgaug ing
G r
ĠLe af
Ġstri atal
tub ulin
Ġstoichi ometric
Ġbar rel
Ġsulfur ic
ĠAle utian
Ġdomin ating
Ġpeat land
Ġge ophysical
ĠPharmac ia
ge bra
Ġsuff ered
ĠH ung
th aw
Ġw in
Ġe u
ĠM IP
RA D
ĠP FC
Ġ0 6
16 4
ĠProm otion
0 20
Ġparent heses
Ġenterpr ises
Ġm ate
17 6
ĠAss ay
Ġepiderm is
Ġrecogn izing
Ġvox el
ĠS LR
Ġhydro thermal
Ġelectroph ysiological
ĠMis sissippi
ĠS b
Ġtyph oons
Ġwe igh
Ġcom mod
Ġslow ed
m ium
ĠAL L
oc on
Ġper imeter
ver g
Ġ "
Ġgener ous
Ġanaly tic
ĠL CL
Ġpar affin
Ġalk yl
Ġrefer ring
Ġperc olation
ĠO rig
Ġante cedent
C an
Ġhomeost atic
Supp lementary
M ed
read ing
Ġexchan ger
cons uming
Ġimp ose
ĠTw een
qu ant
Ġpur ple
ĠSequ encing
Ġcolocal ized
c hen
Ġreal istically
Ġdiagn ose
Ġreprodu cible
ĠSS H
C or
Ġachie ves
urric ane
Ġbiomark ers
hum id
Ġfract al
lymp us
ĠE Q
f ixed
ĠIn ner
G o
U B
Ġthe ta
ĠM EK
Ġd erm
Ġmorph ogenesis
Ġcomposition al
GE O
ad y
Ġle ct
ap ore
Ġconflict ing
âİ ľ
Ġtriang les
Ġthree fold
Ġste ering
im ulation
Ġsubp opulation
Ġpreserv ing
nd raft
ĠW H
Ġca ud
âİ Ł
Ã¡ n
Ġwater log
Ġhard wood
ĠEstim ates
Ġs oc
RF P
Ġb read
rolog y
ĠReg ression
Ġphotore ceptor
j ing
RA P
Ġprote ome
C p
on to
Ġheter ologous
ĠSah aran
Ġoccup ation
Ġpump ed
f acing
um ulation
Ġcereb ellum
ĠInstr ument
row s
Ġfinger print
O r
q ing
Ġlam ina
ĠG an
te x
ĠRo ad
Ġoccup ies
Ġexacerb ated
Ġglyco lysis
Ġprecipit ating
Ë Ĩ
ĠH EC
ĠB SI
01 9
Ġf usions
Ġcollabor ative
Ġs igma
Ġ0 3
cl am
ass ic
Ġrepresent atives
j er
Ġs omat
ĠE I
ĠK umar
ĠD Y
Ġfo uling
ur on
ĠG n
Ġunp aired
K S
Ġm ock
ĠT ec
p res
ĠRes id
ĠGre ater
ĠD SS
L ys
Ġsal in
ac in
Ġupdraft s
Ġgard en
ĠM agn
Ġlim estone
au x
on ential
ĠM ember
v s
Ġinvestig ates
ix el
0 36
f lies
âĢ ¡
pt osis
Ġmap le
be i
ĠPl at
Ġster oid
Ġnanopart icle
L V
ĠP OD
Ġapproxim ations
Ġcondens ate
Ġkines in
T e
ox yl
Ġbar ley
Ġcompet ent
Ġpre incub
rel and
Ġpast ures
Ġro ds
stit ial
Ġsha ft
k Wh
Ġab norm
Ġlamin ar
par ation
aer osol
is o
Ġexception ally
Ġbi ops
Ġdend ro
Ġpet roleum
st rom
ĠT at
Ġb rine
ĠD ani
Ġmonso ons
Ġfirst ly
Ġgra upel
Ġs ave
ĠG EM
ĠIn fect
âİ ¢
Ġst one
ĠF OR
Ġplur ipot
em ann
ĠBr O
Ġarchae al
r ide
Ġgas ification
Ġtranspos on
Ġsurround ings
Ġbud s
process ed
T AG
Ġth inking
âİ ¥
Ġscaff olds
ĠEvalu ation
T a
ĠT u
Ġste eper
ĠOb viously
om ite
ĠRO I
Ġinterfer ing
ĠKuros hio
Ġlog ical
oh ns
Ġmar s
Ġt al
Ġheat wave
Ġmagn ification
ĠMy o
ph ot
os er
ĠP ap
Ġlig ated
l ance
ĠS RE
act ers
ab d
Ġsub urban
ĠMeteor ology
Ġprom ise
w orm
N SF
G TT
ĠO HC
Ġdi ploid
const rained
in ergic
ĠP ax
Ġdis cl
Ġtra che
É Ľ
Ġbio energy
Ġprofess ional
m og
D i
Ġintr as
ant ib
Ġab brevi
ens it
Ġsuggest ive
ĠMic roscopy
v ar
01 1
Ġsub seasonal
Ġinf lation
ĠEG TA
Ġcop ula
Ġdispar ity
D el
Ġf us
ĠG reg
avail ability
Ġcomp ost
Ġshrink age
Ġtolu ene
or ic
Ġl id
otox in
Ġmanip ulated
Ġbiof uels
Ġsemicon duct
i ate
Ġchar t
bur st
Ġis let
Ġendo plasmic
Ġp B
G CA
ĠD iss
f ront
Ġadapt or
Ġpal mit
ro v
ors hip
Ġcomplement ation
b red
od ied
ad or
FP s
Ġreinfor ce
t et
ĠFox p
Ġmonot onic
ax ial
0 23
ocl imate
Ġtop s
Ġneuro genesis
ĠR ib
an ium
reg ulate
ion ic
Âµ m
ĠPart icle
rain s
F O
Ġb og
e i
Ġt ect
ĠP GC
Ġconv ention
e ors
Ġappro val
ivid ed
15 2
Ġcrosso ver
Ġreinfor ced
Ġassist ed
Ġt am
act ors
Ġshort ly
Ġamb ig
Ġsil icate
Ġy our
ĠD MR
Ġevol ves
yst als
ĠS ame
ord an
AR E
Ġb ay
ĠInt rig
Ġmonot erpen
Ġd t
f at
Ġup wind
Ġinfect ivity
n ai
Ġdam aging
Ġroot ing
g ic
ĠPW V
ĠÎ ¶
ros cler
Ġgl omer
H o
f al
ad d
L ab
ĠB G
ĠConcer ning
ĠE H
Ġwet ness
Ġte a
ĠForecast ing
on omy
ĠPM F
h ow
an us
r orad
ĠU P
Ġdi ap
ĠSI E
Ġ19 0
Ġsem antic
Ġ1 11
20 6
ĠN ile
15 8
ĠDAP I
fig ure
yst er
Ġprodu cer
Ġplast id
ĠE ucalyptus
b ing
Ġa u
Ġc ages
ore st
acter ial
Ġj our
Ġlivelihood s
ĠC SF
17 4
ĠTRP V
G TG
iss ing
Ġplate lets
ĠE u
Ġ25 00
Ġpre treated
Ġon shore
ĠBey ond
Ġper fusion
Ġaccum ulating
izophren ia
Ġphot ographs
Ġconver ts
Ġpolymorph ic
Ġd ur
ĠTherm al
Ġdisadvant ages
en berg
ĠTo ol
F V
op hen
Ġw ent
ĠHB V
ĠS GP
ĠA SM
q PCR
14 1
Ġmill ions
ĠBar b
Ġarith metic
19 7
com mon
Ġsinus oidal
ĠSr c
MM E
ĠT radition
ĠL IN
ĠDig ital
ock ed
18 3
MOD IS
T EM
val b
ar ic
st ad
Ġappreci able
ĠM AL
ĠL HF
Ġel ution
CO N
Ġbur ial
ĠT DP
Ġnons ignificant
Ġconven ience
Ġlymph ocyte
Ġn ations
ĠB CL
Ġfir ms
Ġaden osine
Ġent ries
Ġsl urry
Ġintens ify
ĠConf lict
int ensive
Ġmechan ically
ul ae
ĠGen omics
sens itivity
Ġpherom one
ĠNev ada
l an
Ġs ight
Î¼ g
ĠH eld
Ġdil utions
Ġcon ifers
Ġillustr ating
Ġexec ution
ĠCh annel
Ġcyan obacterial
m ot
Ġb ivariate
st ress
Ġchar acters
Ġsimpl ification
Ġpo orer
Ġbl ades
cont inent
ĠSE A
Ġsav ed
g rown
ĠWil coxon
ĠAust ria
Ġp A
Ġmed ic
Ġparamet r
all ow
Ġclar ified
Ġ19 01
ce phal
ĠR ot
Ġimmun os
s ol
ĠSe ed
Ġgu ess
ĠPer cent
Ġb orders
Ġdeline ate
Ġuniform ity
Ġincrement al
Ġre forestation
ĠC art
ĠB MD
ĠAl ber
ag a
Ġsil ent
A IC
ĠP opulation
- [
Ġp arietal
Ġsumm ation
Ġventric ular
Ġang ios
Ġsci ences
Ġiniti ates
Ġphen olic
can opy
ĠSam pling
Ġenlar ged
Ġpen insula
Ġs g
az ine
Ġmonso onal
oc us
ĠOther wise
Ġun bound
Ġout line
Ġdow ndraft
i ance
E arth
Ġamb iguous
Ġprepar ing
vest ris
ĠT urb
ĠPD B
Ġpotent iation
Ġre claimed
ĠPre c
ĠDi ab
ampl itude
pl ands
âĢĿ ),
Î¼ l
ĠVir gin
ud a
ĠN orm
Ġacet onitrile
ut ation
Ġpip elines
mog orov
ĠT MP
ĠV R
Ġstri kingly
Ġimper fect
diff erent
ol ly
Ġconver ters
Ġmicro f
Ġmy ocytes
ol ium
Ġmult ist
ĠSi O
Ġer ad
ĠSA F
ĠE ar
Ġtest is
ĠSing apore
M ax
Ġquant ifies
Ġnan om
ĠComp any
Ġd ic
Ġkin ematic
ĠR aw
Ġlif t
Ġobstac les
ĠP FT
oc ortic
Ġmesench ymal
al ized
Ġcomp ress
ĠRes erve
Ġprolifer ating
ĠNAR R
Ġj ob
ĠCol omb
Ġinapp ropriate
W E
en eration
ĠPr inceton
ij k
Ġbifur cation
Ġwarm s
AR I
Ġsynt het
Ġpig ments
2 30
Ġjud gment
ent on
are to
ĠÎ¼ s
Ġspe aking
Ġhyper polar
Ġast hma
ĠS ut
ĠW ill
Ġam p
u ities
Ġt aste
Ġgen otyping
ĠK er
sc aling
gy pt
m r
p air
Ġ1 22
Ġwe ar
ĠY uan
inter acting
S Y
g ap
Ġp aus
ĠH CC
ten ess
ĠCong o
ĠN ucle
Ġend ed
ĠX ia
Ġinfrastruct ures
ĠMt b
d ose
19 5
el man
ĠL iang
Ġsp onge
ey er
tz mann
erm ann
Ġpermut ation
Ġb ol
Ġacid ity
ĠPD Z
Ġbroad ening
r arily
Ġval ence
16 8
Ġp Ka
ĠB us
Ġstr ips
ĠÂ ¼
Ġphot os
Ġoccas ional
ĠIntrig uingly
Ġex ocytosis
Ġmid level
ĠN ac
ĠF actor
Ġcor rosion
Ġplay er
Ġinflow s
ĠEB NA
Ġtim ely
EN T
ochrom atin
Ġadult hood
ðĿľ Ĩ
Ġdeline ated
Ġres ides
Ġill ustration
Ġsym pat
M eth
Ġchrom ophore
ell i
Ġminim izes
ĠApplic ation
squ ares
ĠI reland
omorph ic
ĠPr incip
acet ate
Ġpanc reas
per formance
ĠG ard
Ġtour ists
Ġo ocyte
ĠSM C
mosp heric
Ġlif ting
Ġpurch ase
Ġco activ
Ġn u
Ġoffer ing
des cribed
Ġestu aries
5 50
ĠP erm
Ġexchan ged
Ġp aren
ĠM OR
Ġdevi ate
d uration
ĠT K
Ġh ill
Ġspread s
g ray
Ġchemok ine
0 34
Ġf ission
Ġto uch
Ġhe d
Ġgly can
Ġan em
Ġ3 80
ĠNew ton
erm i
Ġprot ects
ĠN u
ag raph
Ġs arcom
Î ĺ
ĠM end
ĠH ansen
Ġbaroclin icity
Ġjuven iles
ag s
14 9
18 2
ĠAmazon ia
ĠEr bB
Ġradi ometer
Ġcas cades
ĠInfect ious
Ġconjug ation
Ġw anted
20 3
I B
Ġwas tes
se ed
Ġman ganese
ĠAct ivation
Ġcav itation
ead s
rat io
Ġimm ers
Ġco ils
Ġre ass
ĠG LM
ĠU F
hem ispheric
¿ ½
Ġbran ched
Ġsp iral
ob e
ĠFour th
Ġcomp elling
T B
Ġdimin ish
ĠChar les
Ġpip ette
ubiqu ity
Ġcytoske letal
18 5
Ġecon omics
AP S
ĠEA WM
Ġseek ing
Ġagro forestry
ĠN b
Ġpestic ide
M H
burn ed
} ,
Ġal oft
27 0
ĠS ud
Ġfulf ill
ot opic
Ġsub family
he ating
T AT
Ġvis itors
2 25
ĠH oskins
Ġlact ate
ĠAg ilent
ĠAc cess
Ġr DNA
ag ene
f uel
ost ruct
Ġt ors
P t
Ġs ized
Ġadip ocytes
Ġcomp ressed
Ġintens ively
ĠTF II
Ġchild hood
Ġc ant
Ġconn ects
Ġslow ing
els on
Ġill ness
Ġregener ative
Ġcan n
ĠAt g
Ġdestroy ed
w he
ĠCX CL
n ucle
oph yte
ben ef
I K
ĠD EGs
ific ial
Ġfast est
Ġske leton
Ġ( âĢĺ
ĠGu o
ĠIll inois
ĠR osen
El mer
Ġmet ad
3 000
Ġhe aring
Ġsyn ergy
typ ically
ges cale
Ġdaugh ter
Ġh ollow
Ġuseful ness
ĠN ich
ĠReg ions
Ġcomb in
ĠCF TR
oprop yl
R u
Ġmonoc ulture
T TC
Ġsal ient
ĠT SP
ĠW V
Ġcollo idal
D W
rep orted
ĠB AT
Ġsyl vestris
cool ing
Ġ14 00
Ġbic arbonate
18 1
Ġ14 5
Ġhist ones
Ġs orb
Ġd imethyl
cr ystall
ĠG oddard
lo em
it ious
ĠC ox
7 50
Ġconfirm ation
ĠD ust
Ġincl usions
Ġse am
Ġra m
cat alyzed
Ġimm ersion
ĠI AA
Ġ0 9
Ġ19 20
W u
ful l
Ġnecess it
Ġn oc
Ġre nder
ĠA HP
Ġperiod ically
imil ation
ĠVictor ia
oc in
Ġtriang le
ch t
Ġfurther more
ĠTO MS
ĠF ree
ĠV in
b uff
ol ateral
Ġis opy
Ġep ist
rus kal
Ġappreci ate
ĠCont rary
ĠCA LIOP
cycl ine
16 1
vari able
P ER
Ġhard ware
ĠS on
ĠS qu
Ġsus pect
in st
anc he
D EM
Ġreconstit ution
Ġcorrobor ated
ĠClin ical
M V
i u
Ġn adir
000 3
Ġconsum ing
Ġoffset s
Ġdepart ures
cal culated
Ġplot ting
ĠO t
Ġsur g
Ġweak est
em ission
row ave
ĠGuang dong
an ic
ĠA re
Ġcons cious
ka ike
P e
clin ical
um ption
Ġoff ice
Ġindic ations
Ġ ðĿĲ
Ġs inking
Ġlangu ages
Ġcomm ens
C t
hem atically
Ġal ve
Ġlik ewise
ĠÎ³ Î´
Ġobstac le
Ġe y
Ġdiam ond
26 0
Ġcoval ently
Ġw ors
ĠN ut
Ġsix th
ĠRock y
Ġrecru its
Ġexec uted
Ġa rable
den oted
Th r
Ġresemb lance
ĠM en
ĠN itrogen
Ġshell s
Ġnemat ode
- )
Ġmoist ening
Ġev acu
Ġour s
Ġme iosis
rol l
N ET
d ate
ateg ory
ĠCo ord
iff e
Ġterm inated
Ġeigen value
Ġaug ment
ot ine
ĠH CT
ĠU C
ĠBon ferroni
Ġsur pass
spect ral
n asa
p ol
ĠJ ust
ĠMod erate
erv ation
28 1
Ġill umin
Ġwood lands
Ġvolat ility
c z
Ġpale o
Ġbi os
Ġautoreg ressive
um ann
Ġi NKT
ĠSim ultaneous
ĠInt roduction
Ġno zzle
ĠM CP
IN D
Ġsubs ection
E J
Ġv ocal
Ġind isp
4 18
ĠO ld
m atic
Ġ3 40
Ġcentral ized
iol is
Ġchemot axis
Ġh orn
Ġ1 13
Ġfoot prints
Ġimplicit ly
Ġsatisf ying
Ġbuff ered
Ġinnov ations
Ġhyg roscopic
Ġhydromet eors
ĠTrend s
Ġcontain ers
equ ivalent
Ġmod al
ĠWe ib
d ataset
Ġhybrid ized
ĠArgent ina
ĠV a
Ġchem otherapy
Ġconsolid ation
Ġpresent ly
Ġr uled
ĠE gypt
Ġ6 50
ogn ormal
ĠCF U
Ġcorrect ing
Ġtransport ing
Ġmer istem
ĠSac charomyces
ĠAMP A
ol la
Ġv ac
occ urrence
ĠD V
Ġend osomal
ĠRid ge
Ġcompens ating
Ġspik ing
Ġconf ers
ĠPop ulus
Ġ1 21
ĠInd ustrial
amer ic
x us
Ġact ed
Ġexpon ents
Ġnucle ase
lear ning
Ġwal king
Ġantigen ic
class ified
Ġrot ations
ĠE vent
ĠG arc
Ġfar mer
ĠF ew
Ġfl ora
apor ation
Ġsampl er
Ġvalid ating
ev oked
ĠEffect s
Ġpul sed
Ġam ine
Ġsum s
Ġbe ams
Ġcorresponding ly
ĠL oren
Ġheter ochromatin
ĠPR D
at ase
ĠP AM
Ġspl en
Ġcan als
Ġdet achment
Ġcharacter ised
Ġj aponic
Ġbre ed
Ġcav ities
At lantic
Ġinhom ogeneous
Ġinaccur ate
Ġge omagnetic
Ġreprogram ming
ĠConsist ently
ĠA BI
Ġpos ed
Ġchaper ones
olith ic
Ġ Å
Ġdis infection
CO R
zym es
ĠSa udi
ĠSc ot
at iveness
Ġdry ness
oprotein s
Ġlar gescale
ĠDar win
ore l
th ritis
Ġgent le
if en
Ġdam pen
ct al
ĠDO E
Ġans wers
Ġattack s
Ġsyring e
Ġint ent
ser y
Ġelimin ates
Ġold est
W ater
âĢĻ .
Ġret rog
ĠStre pt
ĠM emb
ĠK m
Ġequival ents
Ġprote as
ub a
ĠUS GS
Ġinter cellular
ras ound
Ġlocom otor
Ġfract uring
waters hed
mon t
Ġmeadow s
SP L
in ositol
er osa
ĠH N
ĠB J
Ġfertil ized
ind ic
Ġp ile
qu art
az o
ĠCost a
Ġpc DNA
Ġm ag
oc ol
Ġexp orts
19 83
Ġtract s
20 4
ĠT EC
Ġ1 17
Ġsec ure
ĠEx pl
Ġsw arm
Ġget ting
ĠHimalay as
Ġpl ac
Ġi i
o ethanol
produ ction
Ġun available
unt ary
Ġupd ating
Ġmaxim ized
Ġdiscret ization
ĠGAP DH
ĠColl ins
Ġextin ct
oval ent
3 60
ram ers
uit ary
ĠAct in
ĠPle ase
h igher
un its
ĠO VA
m c
Ġre bound
w ered
Ġres ear
ĠP areto
Ġrol ling
) |
vel oper
ĠC PS
Ġiniti ative
Ġinteg er
Ġsym biotic
Ġdifferenti ating
Ġreinfor cement
estim ated
Ġ16 00
Ġdev oid
Ġdest ructive
Ġclean ed
G reen
Ġanv il
ĠDec reas
Ġathe roscler
ĠComput ational
ĠðĿĲ´ðĿĲ´ ðĿĲ´ðĿĲ´
P inus
Ġs old
Ġwind ing
Ġarchitect ures
it ter
Ġmother s
on i
ĠS ph
Ġequilib ration
L Y
ar allel
ĠA cid
ĠC over
per ms
Ġte eth
Ġancest ry
ĠRB Cs
Ġne xus
Ġreson ances
Ġcatast rophic
Ġar ctic
ĠSt ro
Ġcaro ten
ĠO d
Ġdec ide
Ġhex agonal
ĠNep al
Ġcartil age
ic ell
Ġvis it
Ġlandf ill
ps y
d iv
Ġpl aques
Ġinf requ
Ġsc ram
ĠH CHO
he im
ĠClim atic
o ub
Ġret ard
P EG
Ġwhen ever
Ġconstit uted
Ġdefin itive
ĠM m
ĠM ag
Ġhard ness
CA GG
z ones
48 8
Ġoste ocl
ĠH urricane
ĠL WC
Ġpers ons
pro ject
f ine
Ġfert ile
ĠA WS
ĠT AP
Ġcontrol lers
hes ia
Ġmelt water
ĠGP M
ĠE W
Ġpict ures
c ile
ĠA e
Ġultra violet
Ġnot ation
Ġlymph oma
o ic
Ġcust omer
Ġmismat ches
C W
plic ative
ĠRe v
rorad iometer
/ ,
Ġ5 32
ĠÎ ¨
Ġconc ord
Ġappreci ated
of l
Ġbeam line
ĠLo ess
Ġpup s
ĠL ine
Ġcess ation
ĠCor respond
Ġsubgroup s
ar g
ĠM ED
Ġch ips
ĠHistor ical
vi ation
ĠCor iolis
Ġto wers
Ġsimul ator
AN D
ĠSt age
t rigg
ĠSim ulated
Ġshort ened
ĠPA H
Ġam en
Ġover pass
and ong
pe at
ĠQ M
V i
S ut
t g
Ġdis assembly
Ġlong itudes
Ġform ally
X X
c ens
n ear
Ca M
Ġsuper oxide
Ġcru ise
ĠCa V
Ġnovel ty
M ic
Ġpl ankt
Ġsand stone
ĠM ission
ĠAt las
ĠHawai i
Ġp yl
Ġne oc
Ġcogn ition
h abil
arc in
RNA i
ĠAM F
Ġassign ments
BI AS
Ġd a
ĠT own
Ġunsu itable
Ġindisp ensable
iv orous
cul i
Ġrms d
ĠC old
D T
ist ence
Ġp ET
22 3
ĠM un
vi er
ov ement
Ġrhod opsin
Ġupl ift
ÂłÂłÂłÂł ÂłÂłÂłÂł
ĠUnt il
Ġclath rin
ĠSuper vision
glut amine
Ġh us
Ġper for
Ġhydrox ide
L H
ĠL ess
ro x
le ading
o uring
comp ared
Ġsymb ol
m ph
Ġsubcl oned
ĠO B
Ġinter stitial
Ġprim ord
0 33
Ġdiab etic
Ġsubsid y
ĠL an
Ġtrans activation
Ġsulph ate
CA S
Ġher itage
ĠGeorg ia
ell o
ĠRoy al
e an
f en
v itro
Ġv e
Ġcrit ic
Ġrel atives
ĠMid west
itone al
ch oline
Ġthickness es
ac o
ĠIn vitrogen
Wall is
Ġvox els
Ġpart ies
Ġamong st
ĠWWTP s
18 4
Ġdop aminergic
ĠdB Z
Ġpro c
Ġsign ed
ĠCh ap
ĠPark inson
Ġbeg un
Ġprovin cial
S a
Ġc amb
Ġcar s
Ġencl osed
ĠS TR
ĠW ol
AS E
f erence
s now
pro te
air y
O I
Ġt ent
ĠO cc
ĠMic rowave
Ġdoub t
ĠObserv atory
ĠD er
Ġstrat igraph
Ġgerm line
Ġfilament ous
Ġtet hered
Ġoverl ay
st an
ark s
it ness
Ġcro plands
in jection
Ġd ated
ĠG AM
ĠIr rigation
ag us
ĠLew is
A sp
Ġpolymer ases
Ġ( =
ĠT ES
em p
ĠEx cel
Ġmorph ologies
ĠD h
cl one
22 6
Ġperi plasmic
Ġun infected
Ġstain less
target ing
Ġmicroflu idic
âĪ ¶
ĠO ct
ĠPol icy
Ġport able
19 84
hen e
ne o
nes ota
Res earch
Ġischem ic
he ter
v ated
ĠNak amura
Ġsp ore
Ġo re
pl atin
Ġbro th
k at
pl ains
ĠCol lab
Ġglyc ol
Ġestu arine
25 4
ĠCo hen
ĠUSD A
Ġerrone ous
ĠP hy
Ġ20 80
Ġshe ath
Ġreli ance
uccess ful
ĠKle in
Ġassign ing
S w
enc oding
f orth
Ġconf inement
Ġw rite
im aging
wa velength
Ġc GMP
month ly
ĠSe ven
ĠSV R
ĠAv ail
ĠNac ional
Ġm Cherry
app a
N W
j un
Ġdisc s
Ġhydroph ob
Ġl in
Ġparen ch
Ġneut ron
clam ation
ĠL CA
lo ading
ul ators
ĠE mission
ox o
Ġsequ ester
he lices
Ġbrom ide
l ich
Ġpock ets
d n
ĠH CMV
Ġolig odend
H ER
Ġch iral
ĠB h
Ġadv ancing
pd b
ĠL Y
Ġretro trans
Ġultrason ic
Ġvir gin
Ġep ile
ĠR io
ĠY e
Ġin effective
aci Ã³n
ĠSim pson
blast oma
ex cess
Ġout standing
Ġproven ance
Ġbread th
er os
Ġpar agraph
ĠK H
Ġextra ord
radi ation
C X
Ġinher itance
ĠRichard son
ĠRepresent ative
ox ia
24 5
Ġauthor ity
Ġ0 8
Ã¼ r
Ġp mol
ĠBac illus
Ġquies cent
16 2
ie b
ĠM CD
ĠGen etics
ĠDr ug
EX P
Ġinst abilities
mu ir
ĠJ H
Ġpred isp
âĢ² âĢĵ
Ġplast ics
hu i
Ġarr ive
V al
Ġb im
Ġtw in
ĠArab ia
Ġcohes ion
a pping
Ġ âĭħ
Ġreact ed
lik elihood
0 50
ĠN EM
m T
upl oid
EN S
ĠDick inson
Ġ( âī¥
ĠD RE
Ġarch ived
ĠF ermi
ak h
ex change
20 7
CA AG
lement al
roc hemical
Ġthin ner
on aut
J s
ĠM ode
Ġ19 66
Ġdisc our
Ġden atured
ĠB ig
ĠT erm
ĠJ ordan
ĠUl tra
Ġ1 19
end a
16 3
ok in
Col our
Ġmonoton ically
ĠâĪ ĳ
Ġpolicym akers
Ġolig os
S anta
Ġfacil itation
Ġv in
Ġacceler ates
Ġflat ten
Ġpie z
ĠTyph oon
du p
Ġvas culature
Ġneurotransmit ter
Ġmed icine
ĠLe ica
struct ural
ĠLT D
Ġwhe el
Ġconcer t
ad ays
Ġsp he
ass isted
ĠCH P
l iter
Ġd uty
Ġdisrupt s
in ct
Ġnotice ably
Ġalb umin
ĠI de
normal ized
ie u
O x
Ġsch izophrenia
ĠS LC
th on
In stit
Ġchimpanze es
g p
le ments
ur red
forest ed
Ġp ic
dis charge
d imethyl
__ __
ĠNA DH
access ible
Ġex ud
Ġconfer red
A id
Ġlitter fall
CR E
ĠCons ortium
Ġp ush
L o
al pine
ĠT TL
+ +
ĠGH Gs
Ġcar n
ax in
ĠB W
Ġpr uning
33 90
Ġtom ography
ĠMit chell
Ġstret ches
Ġhing e
Ġ1 14
yl ase
Ġdimension ality
ĠBO LD
Ġsub domain
ĠNord ic
% /
ĠN ag
Ġacc retion
ĠAM D
ĠML L
ĠT IR
v ival
ĠP yth
ĠInf rared
Ġsilvic ultural
Ġas ynchron
ĠP TP
Ġthym ic
Ġt iter
Ġb out
ĠB ax
Ġprincip ally
otox icity
Ġdet ections
ĠC BP
ac ier
Ġtrans mittance
Ġqu as
part icularly
Ġavoid s
iv irus
Ġincub ating
ðĿľ Ķ
Ġdrain ing
Ġbil ayers
Ġal gebra
Ġmon etary
Ġion ospheric
Ġhe uristic
dep endence
Ġter ra
G DP
Ġgl i
Ġrel ay
ĠJ er
ans as
Ġsumm ing
SO L
ĠâĪ Ī
Ġleach ate
SO M
Ġel der
ulf ate
Ġing red
ĠDef ense
Ġoligomer ic
Ġun structured
Ġsub limation
ĠHP V
Ġphospholip id
an ch
Ġalkal inity
Ġdanger ous
0 37
ur i
ĠW ACCM
ĠEco RI
ow ell
ĠF red
ers en
ĠAn throp
ĠP OC
Ġdamp ed
Ġdog s
2 12
Ġdorm ancy
0 27
u cc
Ġdestabil ization
ĠP AT
ĠB iod
ĠWild life
Ġcoversl ips
Ġheat waves
struct ed
Ġaden ovirus
ĠT KE
ĠD FT
Ġb ones
Ġcombin atorial
ĠTRP M
Ġrend ering
Ġtry ing
Ġkeratin ocytes
z ers
Ġc rab
Ġn ar
Ġmy of
Ġphag ocytosis
ĠM os
Ġevalu ates
Ġter pen
ic ul
ox ifen
Ġ17 5
Ġminor ity
ĠFc Î³
Ġearthqu akes
Ġripp le
Ġdisrupt ing
L STM
T EC
Ġhe aling
Ġwe ed
S B
Ġaccur acies
Ġze olite
Ġrefrig er
S to
ĠS oden
ĠH SC
Ġoptim ally
Ġan e
Ġanalyz es
ĠPh yl
Ġrepe ating
Ġcolon ized
rele vant
ĠâĪ Ĥ
ĠVirgin ia
ĠM LP
Ġper fused
pro f
ĠEx amination
ĠCR Y
Ġ19 57
Ġm W
Ġde phosphorylation
Ġradi ocarbon
Ġwil low
Ġinev itably
P ar
k ov
Ġtop ographical
at is
ĠGE V
y ellow
). [
Ġheavi er
Ġdecl ared
sh ort
ĠAr p
Ġlinear ity
hard t
Ġneg ot
Ġb ow
Ġdisappear s
w as
ĠK s
* )
ĠH ou
Ġcan yon
ðĿĽ ¿
Ġimmob ilization
im b
ĠR BC
cent ered
Ġmic rosc
Ġunambiguous ly
d iversity
Ġg ates
fore cast
Ġolig o
ĠNiger ia
ation ally
Ġpe er
he tically
ĠBSI SO
S AM
is a
Ġinv aded
ĠE very
Ġvalu ation
Ġf elt
vent h
ĠUt ah
J un
min imum
Ġbar c
Ġrestrict ing
Ġout growth
ĠKen ya
W illi
re nal
ĠC SR
ĠMin nesota
ation ary
ther ton
d ust
ĠP el
Ġexc itability
ipel ago
Ġph loem
orith m
col or
Ġvib rations
is co
ĠR ever
ĠO verexp
Ġ19 63
ina fter
Ġbrid ging
Ġcred ible
ĠUlt imately
on ents
Ġcont ral
C han
Ġcent ros
29 0
Ġpoll ination
p ret
Ġel li
Ġglob ular
Ġde xt
Ġme ets
U K
yl la
Ġpoly acrylamide
Ġsyn onymous
ĠA kaike
Ġmore over
Ġprecipit ate
ĠN ano
la pping
burg h
ĠG s
ob son
ĠS CD
Ġser oton
ĠB art
Ġem otion
Ġover fitting
com mun
ĠPh ys
ĠPat tern
ĠW hy
Ġgreen ing
s ix
Ġdis ent
ell ers
ĠJe ff
S K
ur ities
th ing
CA L
100 2
buff ered
Ġrain band
w eed
Ġdec on
Ġembed ding
C er
Ġrecir culation
Ġskill ful
g ement
ĠS f
Ġmacroph ytes
Ġlocom otion
Ġinter ven
AT E
Ġlif est
m Cherry
Ġdetect s
ĠLang muir
K d
Ġge ology
ĠBer n
Ġp orts
IS C
Ġstir ring
ant e
ĠBLA ST
Ġinform al
t c
ĠEn ter
Ġaff erent
ĠMon soon
Ġ19 64
ik a
ul ative
ĠH unt
organ ized
Ġarg ues
Ġt rit
ĠKol mogorov
galact osidase
ol ig
Ġtrans miss
Ġkin et
arrest in
verg ence
ĠW L
Ġvolunte ers
ĠNC BI
roph in
Ġp its
Ġsp anned
ĠGRA CE
Ġh T
D K
ĠAn omal
ĠEuler ian
am an
Ġsie ve
otroph s
n etwork
Ġ( #
ph an
Ġcoinc idence
ĠR PA
Ġend ocrine
imer ic
ump ing
ĠKal man
Ġ20 40
Ġcrystall ography
Ġimport s
Ġpept id
ple ment
rit ten
Ġopt ic
ĠIV T
ly l
Ġpass ages
ĠOrgan ic
Ġnemat odes
Ġl ognormal
ĠIn vent
po ol
Ġcoll apsed
LA I
Ġtang ent
Ġl ivers
Ġret urning
ĠMD M
ĠEar lier
Ġdb h
ĠZ he
Ġfabric ated
ĠS el
eg er
ĠGlu R
ĠT emporal
ĠM Ã©
Ġliqu ids
Ġn ong
Ġimmun od
Ġc f
Ġstrat um
ĠH eter
ĠAd d
Ġintu itive
Ġun modified
aw are
Ġly ing
ĠNeu ros
ĠH ud
Ġexpl oratory
third s
Ġst ory
21 7
ĠAct ive
R h
ĠC orrelations
ĠBo B
Ġregener ated
Ġle v
ĠV IC
of ect
ĠNMD AR
ĠEns emble
rel la
ĠGl c
d rop
Ġrepet ition
B a
ĠTr x
Ġla id
ĠR ag
ĠDes er
Ġherb icide
e ither
Ġnon etheless
Ġexc iting
Ġmiss ense
Ġdiod e
ĠP as
AS S
ĠE Z
ĠL yn
ĠSh andong
Ġpav ement
ĠW i
Ġinvas ions
Ġsav ann
Ġtrip let
17 3
ĠQu ik
Ġaut otrophic
U F
und ant
0 26
Ġ9 25
ĠKCN Q
ĠP eng
0 22
Ġtransl ates
Ġcoag ul
Ġstrept omycin
Ġt ions
mon ium
Ġsil ic
ym a
aph yl
ae a
Ġt ric
ĠS ir
Ġurban ized
Ġsubd ivided
ĠWeb ster
ĠF o
Ġde veloper
ĠK ang
ĠTrans fer
Ġjud gments
Ġb red
Ġaut hent
ĠSR C
Ġbuff ering
Ġcope p
Ġc erv
18 8
ĠRel ations
ĠBe au
H H
ĠF G
Ġantip arallel
Ġadv ent
Ġrefract ory
om i
ĠHop kins
ĠB N
Ġconceiv able
id ated
Ġcycl ogenesis
Ġchimer a
ĠW el
ĠD MA
Ġsub region
Ġsusp ected
Ì Ħ
an cer
Ġtre n
ĠCh o
Ġbra king
e vent
Ġdist ort
ĠRecomb inant
Ġp CO
Ġth yroid
ĠF an
Ġgard ens
Ġol ive
Ġm orb
pur ified
ĠGN SS
Ġper ic
Ġ) /
ig a
Ġs ales
ĠN uclear
th ora
Ġfat igue
ut ter
ĠG EF
Ġod d
GH G
on ite
ĠCSI RO
id et
Ġpick ed
id ad
ĠF ro
Ġpl ag
Ġtub ules
K al
v ine
cl iffe
g re
Ġmig rated
ĠCir culation
iz hou
Ġtransmit ter
ib rated
Ġcan cell
ose cond
Ġaden ine
Ġp ines
Ġl osing
ĠG mb
ĠEm b
0 30
Ġse es
Ġpl u
Ġdes erts
ĠCO SM
ĠRec on
th reshold
Ġrel ie
ĠM ant
Ġbus es
Ġmamm al
iet ies
ĠE h
Ġsubstit uting
Ġend ocytic
Ġmic rom
Ġprom in
Ġnort heasterly
ĠER Î²
Ġs igm
le gal
ĠJ ohns
Ġnon re
ĠDisc overy
V ar
b ow
lar ge
D es
ĠM anning
ĠL TR
ĠDist ribution
ĠWeib ull
ĠM AC
ĠL MP
Ġet her
ĠBam HI
Ġthaw ing
Ġmultil ayer
Ġimmers ed
Ġcooper ativity
l ocated
z ol
Ġe CO
ĠF resh
ĠChild ren
Ġsurfact ant
Ġste ppe
19 6
ĠNO S
Ġflank ed
ĠM Z
Ġmask s
Ġprokary otic
ĠC TP
Ġhypert rophy
Ġeigenv ectors
Ġmid point
occ up
ĠSyn chrotron
on as
ill ips
enc l
Ġrainfall s
Ġspl enic
ĠFin n
Ġpow ers
ic ians
im ide
ĠM SD
Ġem an
Ġ16 5
ĠBiom ass
Ġover shoot
acter ium
ĠPur ified
re b
ĠN d
ĠI WP
Ġpre processing
ov ari
Ġser ver
con ventional
Ġpunct a
Ġa pex
ĠMa pping
or ated
Ġis othermal
ĠK nut
Ġl eng
ĠH ead
Ġadv is
ĠWa als
Ġtop ologies
Ġmask ing
trigg ered
Ġequ ity
St rat
ĠRem ote
Ġj umps
ies is
Ġb et
Ġ19 67
ĠHere in
m ary
ĠM ak
Ġshort ages
ĠCM V
sec ret
âĢ° ,
Ġsepar ates
Ġsil ico
Ġco factors
reg ulatory
Ġstret ched
Ġlay ered
ĠEn hanced
Ġdiv erged
acc ade
Ġins urance
Ġre vis
ather s
ĠBi ol
Ġdep ressions
Ġves icular
ĠPe ople
Ġmo ieties
D av
est inal
ad is
ĠR aj
18 6
Ġ11 00
merc apt
tech n
Ġfle et
os um
ĠGPCR s
Ġf ores
ĠS ET
ĠIdent ification
ĠG V
Ġconduct ive
ĠAss imilation
Ġint ric
Ġunpredict able
ph ysical
Ġtub ular
Ġth io
Ġres ampling
pl asia
Ġ umb
ar ray
ĠD ur
Ġmet agen
ĠCL L
W V
m agn
Ġl ingu
ĠN G
Ġmod ifies
Ġsp ell
Ġe osin
Ġpl ankton
ĠCaM KII
link s
ĠK RAS
ĠSW S
ogly can
ne ys
Ġevapor ated
mod ulin
Ġextin ctions
Ġt RNAs
en hanced
Ġk yr
Ġemphas izing
eg u
Ġimmun ogenic
ĠCor responding
Ġcation ic
oub ted
C ent
Ġun balanced
ph thal
ĠðĿľ ķ
Ġre habil
Ġequ ality
equ ilibrium
ĠFlu id
Ġthrom bin
ĠKy oto
U X
Ġpul led
filt ration
ĠV M
Ġj ack
assemb led
ĠTheore m
em ale
Ġimpair s
ĠHS Cs
Ġheterozyg osity
o ys
Ġmaxim izes
ĠSY BR
b its
Ġflood plains
L B
Ġinduct ance
Ġpond erosa
ob el
Ġmetad ata
un ed
ĠR d
Ġsplic ed
Ġparticip ates
Ġrecess ion
3 20
Ġlo ose
Ġtempor arily
ill ars
Ġsuper ficial
in ating
Ġc ash
Ġanest hesia
Ġadapt ability
Ġconc ave
ĠEU R
Ġg ar
Ġembry ogenesis
Ġevol utions
ĠCorrespond ingly
ĠSt orm
Ġtour ist
d otted
ĠFu j
circ uit
is ec
Ġbott le
Ġmultis cale
Ġthe r
Ġe NOS
Ġloc ust
Ġactiv ators
ĠSC I
Ġagre ements
Ġadapt ing
U I
Ġprim ed
Ġcataly tically
MA E
Ġsatur ating
Ġadvance ment
Ġtra ction
Ġfinanc ially
Ġp rairie
char ging
Ġlys osomes
Ġantagon istic
Ġbra ke
Ġphyl a
ere xp
ari os
ons et
Ġlocal ities
Cont rol
Ġdist orted
Ġl ived
Ġincl ination
Ġinstall ations
t urn
Ġcons erve
[ (
at i
ĠMat the
Ġinsp ired
Ġm yr
om eration
un al
apt ure
Ġreflect ions
ĠQu aternary
Ġk riging
ue z
Ġgluc ocortic
ymet ry
Ġfac ial
ian nual
ĠBi ochemical
ĠBro ok
D BH
m ount
it ches
Ġ3 10
Ġdiscontin uity
osp atial
Ġperme abilized
scatter ing
Å ¡
ber ger
ĠFL OR
Ġprop os
strict ion
ĠBro ad
Ġmonol ayers
Ġunst eady
Ġirre levant
Ġele ph
Ġwa iting
Ġpract ition
B N
ic z
ĠDEN V
X D
Ġover story
ĠAust in
Ġcorrid or
Ġbin ned
Ġdil ute
Ġglyc ans
Ġquenc hed
ĠL CC
Ġenerg etics
ĠSp orts
ĠFund s
ĠAer onaut
Ġsh ipping
Ġcred it
ofect amine
ĠS ig
Ġapp e
Ġfluctu ated
ĠRef erences
ib ro
ĠMT s
k h
ĠC IN
Ġnit rates
Ġfo am
ĠS hel
Ġflav on
G AC
ĠTh anks
Ġprob ing
ĠSP CZ
Ġtherapeut ics
ĠObserv ation
Ġpred efined
Ġnur sery
ĠPPAR Î³
Ġon ward
ĠSP R
ĠSed iment
in put
ĠI NT
Ġprogram me
r ut
og on
Ġdef lection
ind ividual
Ġcorrid ors
ra cellular
Ġepidem iological
k l
ĠS CM
ĠPer formance
Ġaccess ory
ĠSte phen
ĠGlu A
Ġphotore ceptors
on yl
Ġc hest
Ġmention ing
ĠScholar ship
ĠBr un
Pro ject
Ġt roph
mix ture
Ġpe culi
SS P
alu able
Ġoverla id
ĠVisual ization
A kt
if lora
ĠW PSH
Ġhum ic
ĠH od
Ġcl ogging
Ġperox is
ĠE manuel
Ġanch oring
U RE
he mer
ĠN y
Ġ0 7
Ġreflect ive
Ġspring time
ĠPR C
Ġk t
ĠGmb H
Ġsuc ceed
Ġfrag ile
in ducing
des ign
Ġsap wood
Ġmanifest ation
ĠE KE
oh aline
a head
ĠS olid
Ġinv aluable
ĠPro duction
ps um
G a
Ġdest ination
Ġimag inary
pa que
ĠNe ander
ĠSchmid t
Ġhydrophob icity
23 5
oubted ly
0 28
Ġguid ing
us es
ore ctal
Ġnic otine
ĠSignificant ly
Ġ2 25
Ġbrack ets
Ġminim ally
oly mer
Ġdens er
Ġglyc ogen
Ġarr iving
ater gic
ĠJ olla
Ġmat ters
org hum
Ġfabric ation
an alytic
h arvard
ĠSub stit
Ġbore holes
oc arcin
can onical
Ġmanif old
olab eled
ĠMill ipore
pe z
19 2
Ġanch ored
ĠL G
Ġsol ver
Ġbeh aves
o ct
iffiffiffiffiffiffiffiff iffiffiffiffiffiffiffiff
RE s
Ġend onuclease
Ġcontrast ed
rif uge
Ġclaim ed
Ġhol istic
Ġp ink
30 5
Ġover land
P al
27 3
o T
Ġis ob
ra vel
rehens ive
Ġmetast able
ĠT IM
ĠL h
o ured
36 5
Ġc p
ir nov
ĠK az
Ġ12 6
Ġopen ings
Ġprec ondition
T OF
ĠC ond
ĠP IF
Ġlob es
ag ger
Ġoxid izing
m ort
Ġcar p
Ġbuild s
ĠV ector
Ġband pass
ĠConcent rations
Ġp T
ĠPrincip al
M ac
Ġo m
Ġmain stream
Ġpredomin ance
ĠN EC
ang i
Ġvir ion
ĠCH IR
ĠZhe jiang
se lect
Ġprogress es
Ġcontract s
ĠN BD
Ġqu ot
Ġcyst e
ĠRes earchers
ĠOverexp ression
H G
ĠJ P
Ġref ine
Ġcos ine
Ġcompet ence
ĠF Y
ĠAd ri
M K
t ri
Ġident ities
Ġconv in
ĠSI M
ĠGO ES
20 9
Ġtrem end
ĠA NPP
ĠL es
Ġat yp
ore tic
ignific ance
Ġhydro chemical
Ġsuper cooled
Ġgain ing
ĠTyp ical
Ġd oll
ĠL amb
Ġmem ories
ĠSyn ech
ĠH RT
ĠSP E
Ġmont ane
Ġpos itives
Ġdr izz
ĠBacter ial
Ġbiomark er
Ġwet test
ĠC c
A meric
ĠH RP
Ġro ll
Ġwave gu
ĠCan ESM
ĠDiab etes
hel ia
PP s
Ġgu ild
ymet rix
mic ro
uni per
ew ard
Ġbreak through
Ġdeco upled
Ġsh am
ĠV SV
Ġimper ative
ph oton
sc aled
ĠAT F
ĠPyth on
Ġelder ly
ĠMad den
d ens
an yl
ĠT urner
un es
ĠD ome
Ġport fol
ĠS ES
ĠV ill
Ġox al
Ġign ore
Ġproven ances
as se
Ġv ine
gly cos
ĠCl O
ĠCR M
ĠSA H
ĠFlu x
Ġa rous
ĠT oll
ond o
abol ism
Ġencour aged
Ġlent iviral
ðĿĳ į
Ġhind er
Ġ4 40
ĠRad ar
n os
Ġand rogen
F G
S al
Ġl nc
ha ir
m oment
In s
su per
ra i
Ġ14 4
Ġdev ast
OR C
O G
I OD
Ġt ick
ĠTRA F
Ġspac er
ĠNon idet
Ĺ ĭ
id irectional
Ġad oles
Ġconst raining
Ġwork flow
ĠUV B
Ġconjug ates
Ġcylind ers
ĠL MA
Ġimp urities
Ġnon local
lys ine
ĠS her
ĠI MD
Ġchem il
ĠS av
ĠM Ã¼
Ġbo iling
ĠPar ameter
M ET
ĠE ph
Ġcom mitted
Ġly so
Ġdisp atch
ĠSI RT
ðĿľ ı
Ġg ently
W est
ĠN V
Ġ3 30
Ġref erenced
ĠWork ing
ĠC tr
Ġquart ile
Ġneighborhood s
o ylation
f o
Ġs ake
ĠG ab
Ġhem icell
Ġintellig ent
Ġdesic cation
Ġperce ive
Ġsub continent
Ġtest es
Ġkeep s
ĠSecond ary
ĠE VI
Ġcoll isions
Ġblow ing
r im
st rain
ĠG el
atin um
Ġtrans boundary
it us
Ġradio active
ĠInhib ition
17 1
ĠResp onse
Ġdomestic ation
ĠM MR
and ering
ycl ine
F l
Ġelement ary
Ġconcurrent ly
ĠK enn
Ġgrad ed
exp onential
ĠOH T
st able
ĠC BL
DO E
Ġtransfer ring
S AT
Ġb ist
ious ly
Ġmanufacturer s
Ġcaps ule
c ur
ĠF ried
Ġâ Ł
ĠC ode
sh ifted
ðĿĳ¥ ðĿĳĸ
Ġrig idity
l apse
I TCZ
Ġbu il
ĠNan jing
S AR
Ġsl ot
ĠSH F
O RF
Ġconver ges
Ġfract ured
ĠDiff erence
Ġph ages
Ġenc ro
Ġat m
Ġco bal
Ġpig s
ĠSol omon
ĠAl most
Ġhydrog el
ĠS Q
Ġprov es
Ġanalog ue
z u
ur ons
Ġcomp re
Ġ20 70
ot er
Ġ3 65
abs ence
S cript
ĠNP O
M art
dom inant
Mill ipore
Ä ±
P ear
Ġf riendly
per turb
Ġdraw down
Ġjo ints
Ġstack ed
FR ET
Ġabrog ated
al tered
ĠS CR
Ġan at
ĠH h
Ġad versely
4 40
ĠT MD
ĠL ig
Ġpath oph
ĠMe ehl
Ġtranscription ally
Ġmicroar rays
Ġcomm and
Ġre vision
eng ineering
ĠAlber ta
ĠT ol
Ġver tices
Ġint rog
ĠU SP
Ġcontral ateral
Ġun characterized
ep it
ĠÂµ mol
Ġfavour able
ĠAeronaut ics
Ġpyl ori
Ġfeed er
is an
ar boxyl
Ġass et
Gen Bank
Ġmuc osal
M AM
ĠRedu ced
S ah
Ġaccess ions
ro uting
Ġhe ater
cut ting
re ction
ĠP c
Ġel ast
Ġdel iber
Ġunequ al
ĠD ES
Ġfor t
g lobin
ĠQ C
Ġplac ental
ad er
Ġmultic ellular
ĠR isk
ĠV L
K R
Meth ods
ĠK il
Ġhydrograph s
P SI
ĠO hio
AB C
Ġinhom ogeneity
G rants
p opulation
âĢ² ).
Ġsw im
ĠIFN Î³
Ġiod ide
rain fall
ĠPh ysics
Ġchloropl asts
Ste p
q i
ĠCD D
Ġacet ylated
Ġrecal cit
ĠT re
ĠCD C
HL H
ĠB lo
yl on
K M
Ġhel per
SA S
Ne asy
Ġï Ģ
âİľ âİľ
ĠM EG
Ġdecl ares
Ġupd ates
Ġoutper formed
20 8
ĠTh or
ĠMek ong
âİŁ âİŁ
Ġs owing
Ġachie vement
Ġsegment ed
ĠK am
de velopment
ĠStruct ure
C am
ĠB CC
Ġeconom ical
Ġpull ing
Ġrestra ints
ĠM SC
oph age
Ġmon oxide
Ġfact s
ĠAl pine
Ġfund ers
Ġgu anine
Ġrefug ia
t em
ĠB ase
Ġgener ality
Ġmic ron
Ġmis folded
Ġglutam atergic
ĠCO RDEX
ĠY AP
Ġparasit ic
S u
f ar
od er
Ġec ot
Ġu pp
ific e
ĠB ound
Ġinter genic
L W
v ak
pic uous
a uth
ĠH AL
I f
ĠP OP
c ulture
Ġrock y
Ġtetra cycline
A nt
ĠS tein
ĠOpt ical
Ġtelom eres
al ges
ren ergic
Ġfer ric
Ġdiscern ible
Ġb ron
ĠH ind
37 5
N SE
ad el
Ġ0 5
ĠHar rison
Ġchlor oform
Ġconf usion
Ġinflamm asome
Ġv o
ĠL atin
ĠTo x
ĠCF C
Ġsymbion t
i pper
ĠH ard
Ġcomple teness
Ġimmunos upp
ĠAm pl
Ġneglect ing
ĠR AG
ĠB os
Ġmon os
Ġd p
Ġoverlo oked
concent ration
n ucleotide
ess ential
ument ed
ĠUnivers it
per cent
ĠR MM
ĠDR G
Ġsp end
Ġend oderm
Ġdescri pt
Ġdocument ation
IT E
O BS
w ake
Ġmac rop
W UE
ak ov
Ġrepresent ativeness
sequ encing
x ed
Ġmet ap
Ġarbit rarily
Ġra ys
Ġconfig ured
Sout h
ĠProfess or
cl usions
AT CC
ĠGr ass
Ġdemand ing
or related
ĠInf rastructure
Ġsubd iv
ĠB RD
âŁ ¨
ĠA SD
Ġaccompl ish
C TC
ĠP ast
0 40
o other
oc ell
Ġtrough s
X A
Ġn in
pl acement
AR F
Ġmulti plicative
poly mer
Ġsupplement ation
Ġrend ers
Ġexpl ores
ĠInvent ory
l acZ
Ġs ands
CO S
Ġgr ating
s han
lo res
over lapping
ĠUs ually
ĠD yn
Ġec cent
an ing
ĠL ith
ĠV o
ov es
Z s
Ġder ives
Ġcon cat
Ġo t
pect ral
ĠSch w
Ġident ifiable
ĠLar ger
Ġf t
ord ered
ĠMAP E
Ġperson nel
our s
Ġpass enger
ĠMex ican
ĠT RE
ĠI AV
Ġti pping
Ġrhyth mic
Ġcom mittee
Ġoil s
Ġaph id
â ĩ
17 8
ret aceous
ĠPM C
et ta
ĠD SM
ĠAD AM
Ġproceed ed
ĠS ug
Ġsc int
ĠSc atter
Ġleg s
Le u
Ġexempl ified
Ġdistinguish able
Ġguarant eed
Ġretrog rade
Ġcol orectal
Ġchol inergic
ĠObserv ing
Ġneurodeg eneration
ĠC SP
Ġref uge
Ġing estion
ron ectin
Ġpermit ting
ĠL oc
Ġprefer able
Ġinconsist ency
at ubo
ĠT rop
ĠSum atra
âĢĥâĢĥ âĢĥâĢĥ
Ġcorrobor ate
ĠMod oki
ĠCas p
ĠÏ µ
ĠSt em
Ġcut s
ĠConcent ration
Ġcas cad
Ã¶ m
Ġarrest ed
ĠV D
bu ilding
Ġdimin ishes
Ġvol untary
ĠHyd rological
Ġamphib ians
Ġw at
Ġdet ox
ĠPD GF
ĠJose ph
) ÃĹ
2 16
ĠF DR
ĠN g
ĠL IM
for cing
P et
ĠV it
Ġpolyg ons
23 8
Ġbre ath
vari ant
c g
Ġheter o
Ġcyste ines
ĠCM AQ
Ġundes irable
r l
ĠInd u
ĠInd ependent
J ones
f ood
it iveness
Ġcamer as
Ġhydromet eor
hist ory
Ġw orm
ĠS ab
j an
ari x
ag ers
19 8
Ġproton ated
S PI
Ġf f
is ch
ĠI owa
ĠM AD
ĠG or
Ġbl adder
ĠP ack
Ġden om
Ġdrawback s
+ ),
Ġsp ir
ĠK id
âĨ ĵ
ant igen
ĠD utch
Ġ17 00
hen ing
Ġpolyg on
ĠSh im
res istance
oph osphate
Ġdisp ensable
G ib
s and
Ġread out
Ġpoly meric
X L
ĠH or
ðĿĳ Į
Ġhal ogen
kn es
Ġadsorb ents
Ġexpans ions
K A
Ġinter hemispheric
19 4
Ġproton ation
Ġdiscipl ines
t ot
Ġover ly
up s
Ġjo ining
C GG
ly cer
Ġun imodal
ðĿľ Ģ
M ad
RT M
Ġneurop ath
Ġ2 90
Ġhind ered
ĠSNA P
oc using
ĠIn sp
PD O
orh abd
O n
Ġtil ted
kn ock
Ġenerg etically
ĠOpt im
is ive
Ġanaly sing
Ġi NOS
c oll
rid ine
ĠCamp bell
jer knes
ĠF al
pp s
ĠBe havi
ĠML T
âĪ Ŀ
Ġperman ently
Ġmess ages
Ġintras pecific
ĠTas man
amin ated
Ġimmunore activity
Ġt act
el eration
17 9
ĠSto kes
Ġsymbion ts
Ġdyn ein
Ġ13 00
. âĢĻâĢĻ
Ġatt end
H yd
sp atial
Ġinter cal
ĠK re
Ġ16 40
ĠI U
Ġheter odimers
o ides
ĠM aster
Ġestim ators
Ġdissem ination
AR C
ĠMod ern
Ġmorb idity
ĠC PR
Ġcoordin ating
ĠD ynamic
Ġbath ymetry
Ġaggl omeration
ĠW arm
Ġoxid ant
Ġform ic
Ġsour ced
Ġdesert ification
r iver
ur us
ĠApp arent
Ġshock s
ĠPlasm odium
Ġ12 3
Ġsus taining
Ġexacerb ate
d A
um ab
ĠG on
22 4
Ġtransform s
ĠNik on
ĠCTC F
ah oma
diff usion
Ġion osphere
Ġpit uitary
ĠG li
Ġpl asmon
sign aling
Ġswe et
ĠR BD
M IP
Ġpost infection
ĠT rich
ĠE MT
Ġign oring
oxygen ase
ĠScandina via
Willi ams
18 9
Ġn odal
ĠX RD
Ġhar sh
O RP
at able
mark ed
Ġfrict ional
ĠS ites
Ġle ve
opl astic
Ġexplo iting
m ill
ĠCR CM
Ph aden
ĠG han
rit es
CT D
Ġreven ues
ĠC ra
Ġk an
Ġbackscatter ing
ĠA SR
ðĿľ ĩ
Ġarous al
ac il
ĠB aker
N TA
Ġret rospective
ĠC yto
Ġsm oother
ater n
Ġstrat us
PD SI
Ġmonit ors
Ġneu rom
ocyst s
Ġleng then
act ivate
enc er
Ġhyd rol
Cl im
ĠAT L
Ġimmunopre cipit
Ġchemok ines
H AM
urt is
Ġsurg ical
Ġch in
Ġcol iform
ĠST D
ĠBur k
Ġdecentral ized
iv ore
Ġen anti
ak s
Ġphospholip ids
ser ine
Ġmacroinver tebrate
ĠBeau fort
av oid
ĠET S
ĠI TS
ĠU ral
ĠK ruskal
Ġcalc ification
Ġw ax
Ġ15 5
ĠAntib odies
Ġun burned
Ġar thritis
Ġhypothalam us
ĠPre paration
n ik
r c
ĠT U
ĠMat lab
ĠGib bs
w ick
Ġcoincid ing
Ġwire less
catch ment
Ġstir red
feed ing
ĠS at
ĠA ur
ĠF a
Ġun co
Ġdetect ors
Ġhab its
ĠF ellow
N IR
ĠT MI
ĠC ole
Ġpur su
AP C
Ġmanufact ured
Ġlast s
Ġo zon
CA PE
Ġgast ro
ĠEv ans
Ġv oid
âĢĿ ;
Ġgrad es
Ġil legal
vin yl
Ġortholog ous
Ġï ¿½
Ġrend ered
ĠB ESS
igh bor
Ġambig uity
em i
ĠAl b
Ġbuck et
ĠF ISH
ĠGeor ge
opt im
Ġmes oderm
Ġraind rops
ĠCa en
Ġagg ression
ĠQuant ification
Ġdol omite
ik al
Ġdeuter ium
M ap
Ġbi ol
ne cess
rolog ic
ĠP ed
Q R
Ġnon uniform
orb ing
ĠStrateg ic
ump olar
Ġl ighter
th i
ond er
cl ock
Ġgraph ite
ĠJul ian
ĠSep ar
Ġmars hes
t imes
ĠW ard
arm a
v irus
ĠT umor
Ġav al
Ġme at
Ġengine ers
ĠDani el
m ale
int estinal
Î± Î²
Ġo paque
ĠT od
orhabd itis
2 15
ce eding
Ġrel ig
ĠL LC
Ġlook s
T n
A ct
Ġfluor ophore
b led
ĠPl anning
ĠCP T
P re
m oving
ak o
Ġh ES
mercapt oethanol
M ur
ure ment
oph ysics
Ġphotocat alytic
Strat agene
2 11
H y
LP s
Ġrib o
lag ell
Ġcle arer
Ġbu y
Ġstom ata
Ġextr insic
B CO
Ġcon gen
ST A
Ġheter ot
ĠB oulder
Ġhe pt
Ġobject ively
Ġcad mium
Ġon board
ĠU A
Ġarchae a
bu ilt
period s
ĠHamilt onian
ĠT V
lim b
Ġsonic ation
Ġcollect ors
ĠSte vens
Ġasc orb
Ġ25 6
ĠO L
Ġplankt onic
s ingle
ary n
Hol ocene
Ġane uploid
, âĢĻâĢĻ
id ia
ĠN ative
ĠMin i
Ġc ili
Ġrep ulsion
Ġbu oys
par ameters
Ġconver ged
Ġmes o
ĠRh od
ĠB ry
Ġmorph ologically
ampl ified
F v
R CM
ĠC BM
ĠPin atubo
ur ium
ĠM AG
Ġweigh ing
R OS
ĠT AM
gram s
Ġsc rub
0 45
ĠG it
ĠL as
Ġparticip atory
Ġintens ifies
ĠVari ations
Ġbuil dup
ĠD IN
IP S
Ġes ters
Ġab sc
Ġcomplic ations
ro ton
ĠD J
Ġdet ached
ec chi
Ġh m
ac rine
Ġun ravel
ĠW MO
ĠCa CO
Ġ( %
ĠGP CC
pro ductive
Ġte ams
radi ol
EE E
v ascular
Ġun iversity
Ġrelated ness
Ġleg acy
ĠAct ivity
ud ed
Ġf elling
Ġspecial ization
ach i
Ġconv ectively
Ġpoly peptides
Ġtravel ed
ĠAuthor ity
ĠK F
l iving
meas ures
Ġp G
Ġver tex
i atric
Ġfib rin
bond ing
Ġpractition ers
en arios
ĠG EP
ĠMc D
p al
Ġe q
se lected
Ġcommunic ate
Ġdimin ishing
Ġelabor ate
t een
ĠA ction
Ġcom ment
Ġcoupl es
Ġmanip ulate
A lex
Ġsun rise
ĠCloud s
0 38
ĠT el
ĠN ing
ind icated
are z
ĠCh ong
ĠTRP C
se par
ĠD SD
Ġnon human
Ġ12 4
Ġincub ator
Ġtail ored
Ġret ail
Ġemploy ees
supp orting
ru p
graph s
Z e
ĠU nd
oy ang
Ġer oded
Ġmitig ated
Ġfa ith
Ġsplen ocytes
Ġeven ness
Ġslow s
p x
Ġwas hes
Ġevent ual
ĠCooper ative
P o
Ġprolifer ate
ĠBol tzmann
Ġwaterlog ging
Ġd red
ĠL em
ĠWu han
ĠKnow ledge
olip id
Ġst ops
Ġlow ers
deg rad
es h
pl ored
Ġbreak up
Ġglycoprotein s
stud ied
ĠA NF
ĠR AP
hel d
Ġecho es
Ġdeep est
Ġregular ization
c nal
Ġd war
ĠST IM
Ġlaun ch
ver tical
ĠPM A
Ġform ulate
Ġforest land
Ġprof itability
ĠCM AP
HF R
Ġoutper forms
r ust
z h
io id
T aylor
Ġre wards
Ġisother ms
Ġtam oxifen
trans genic
ĠD ip
A OD
ning s
22 7
Ġhom ozyg
ĠP GE
RA F
Ġ4 80
NA T
Ġenfor cement
ifferent iated
ĠS eg
ĠM IC
Ġnone quilibrium
B u
I E
ĠC AG
um ed
Ġm ated
lect ing
Ġqu ery
Ġx i
ĠGen eration
Ġduplic ated
CP T
Ġproportion ally
Ġt ape
28 8
Ġprecipit ations
O b
ĠComp rehensive
Ġasymmet ries
Ġoccas ions
ĠB BS
Ġdes ensit
Ġland owners
Ġenco unters
Ġexcav ation
ĠP RI
Ġcompet itors
Ġlag ging
us ually
og rap
Ġ ile
re duced
er to
Ġin hal
ĠG G
Ġbo iler
ĠN ET
pro b
Ġread y
ĠGl acier
ĠC RP
Ġbiodegrad ation
ic ans
ĠN ino
Ġher itability
Ġrecomb inase
t etra
AM O
ĠPhilipp ine
ĠRoman ia
Ġcrystall ized
K B
Ġh im
Ġdiscus sing
Ġattenu ate
predict ion
Ġpro sp
ĠG AD
Ġcontract ile
IN T
Ġre clamation
Ġmon ocyte
Ġmic rol
Ġbre ach
Ġsh uff
Ġmid gut
Ġf s
Ġ0 600
uk i
bond ed
Ġkinet och
R MS
Ġnot hing
Ġjo ined
w ash
ĠS up
ĠSh ap
ĠJ ung
ĠW olf
Ġnew s
Ġmid day
ĠPh oton
Ġcol itis
Ġsl ag
ĠNormal ized
ĠJ et
Ġorganization al
Ġdiscontin uities
renew al
Ġplacent a
ĠM unicip
Ġtw ist
ĠColomb ia
Ġprem ise
c opy
ĠG OME
Ġoccup ying
secret ase
ĠCaen orhabditis
it he
ot an
ĠC lo
Ġk el
Ġsalin ization
n als
on ne
ĠP TC
Ġend ow
AR P
inhib ition
Ġwarrant ed
Ġecoreg ions
ĠG Î²
ĠZ H
Ġposition al
ĠSH P
ĠMc G
CR F
ĠPh yt
Ġendot helium
ĠW NK
Ġcomplement arity
Ġbelong ed
ĠGÎ± i
ĠSub jects
d l
Ġfood s
iph osphate
Ġalkal i
Ġcentrom ere
ic her
ĠL SD
ĠQ in
ĠS J
ĠMeas uring
Ġatyp ical
Ġide ally
Ġsequest ered
ĠI on
20 50
2 18
26 4
Ġadj u
ĠOper ational
sever ity
] +
al gal
A Î²
pro duced
Ġknow ing
Ġtre eline
ĠK L
25 5
ĠB at
kin je
Ġshrub land
is ters
ĠAl d
Ġstock ing
Ġadju vant
en zyme
ĠD anish
âĪĴ .
Ġsol utes
Ġspl ine
Ġpel leted
il izing
ĠJ u
Ġblock age
Ġinev itable
Ġw itness
ĠComp ound
Ġbul b
ĠOk l
ig l
ag as
ob ile
G TC
Ġp aternal
Ġad here
Ġcircum vent
Ag ilent
ĠBrown ian
f ound
f ired
ic um
Ġincl ined
Ġsingle t
asm us
ĠCL IM
Kal nay
Ġorgan elle
Ġleuk ocytes
OC K
ile y
ĠY in
Ġunt rans
Hu ang
AA AG
ĠPen man
e ight
re duction
ĠF ST
Ġmet azo
30 3
s elf
ĠH il
Ġarter ial
ĠSing h
Ġdrizz le
ĠF U
ĠG ordon
equ ation
Ġinconsist encies
ĠC CT
ĠH FD
Ġpat ent
Ġtrans genes
ĠSc a
ĠReg ulation
Ġnan oscale
Ġlingu istic
d d
ĠTan z
tox ic
an aly
Ġair port
F lag
I X
R b
Ġcons pecific
Ġprote omic
Ġvacu ole
Ġh orse
ĠL ive
ĠVari ation
Ġthermodynam ically
ilt ration
Ġfast ing
Ġown ed
Ġflag ellar
Ì ²
Ġde activation
Ġly tic
Ġj ournal
Ġlit t
Ġdip olar
Ġatt ach
ĠX L
27 5
Ġmulti plication
Ġoxygen ated
Ġphyl um
Ġrecept ive
Ġwood en
Ġampl ifier
Ġhar ves
u ation
ĠJ i
und ance
ict ion
n M
Ġess ence
stre pt
ĠOkl ahoma
it als
ĠST ING
G aussian
Ġp ressing
ĠP Y
Ġsubt raction
Ġfer ro
ĠIM F
ry s
Ġpot s
ĠSc ale
p ins
Ġc in
Ġsub optimal
Ġant if
Ġuter ine
Ġ ubiquity
il ial
ug a
Ġcor por
ĠJ JAS
ocy anin
ĠE ric
als h
Ġdiver ge
Ġca pping
Ġdeliver ing
Ġrecess ive
Ġbottlen eck
most ly
ĠLa ure
bre aking
on ment
ĠI TF
Ġfollic les
ĠSP M
Ġgalact ose
h s
ĠRec A
Ġc KO
ĠTechn ical
ĠExp osure
Ġmesocos ms
in en
Ġm GluR
ĠS af
Ġmon onuclear
38 0
Ġen vision
Ġexperiment ation
Ġreact s
Ġallow able
Ġeryth rocytes
quart ile
Ġd odec
Ġcan cel
Ġapp ortion
Ġfeature d
Ig G
ĠAlg orithm
Y ang
Ġmagnet ization
ĠTian jin
of lagell
Ġboost ing
2 14
ĠPro ced
strand s
ĠSpect roradiometer
hold er
ĠHen an
0 29
Ġper in
Ġachie vable
Ġabrupt ly
b ran
Ġc G
Ġb ill
Ġlog ged
E m
ex cluding
ost rophic
e lement
am ental
Ġanticycl ones
ðĿĳŁ ðĿĳĴ
Ġneurop rot
Ġaut osomal
o S
ĠT ong
ĠJ os
Ġmat hematically
Ġgast ric
E H
ĠPh o
ĠPol ish
Ġcooper ate
ĠPBM Cs
ĠÎĶ t
sk a
Ġpathogenic ity
y ield
ĠSum mary
ĠCh a
CC S
aw n
ĠRO Is
Ġpay ment
Ġconvolution al
Ġover to
ĠJA K
T rp
c yto
iv ary
ilt ered
Ġhand led
Ġaliqu ot
Ġre nt
ĠMod elling
Ġdissip ated
Ġnig ra
ĠN BS
imens ion
m orph
ĠT rees
Ġspec ifying
ĠR SM
yn onymous
IR ES
ĠIndones ian
bec ause
Ġequilib ria
ocy an
Ti O
re z
CR T
pt on
Ġsp rink
ĠCh u
Ġdiscret ized
Ġdialy zed
Ġt ies
Ġp iston
and ers
op her
Ġed ited
Ġhem oglobin
Ġparsim on
Ġsuccess ively
Ġs oma
Ġclock wise
Ġal bed
Ġk cat
ĠEle vation
an alyses
k it
ĠA SC
other mic
ĠIncreas es
sign al
ĠN CP
Ġgl ia
transfer ases
grad ient
it ching
Ġd um
ĠM eg
ĠB oy
Ġacqu iring
Ġd airy
Ġz yg
ĠUn less
Ġrecover ing
Ġsynthet ase
ost atin
ĠR oche
ĠNot ice
squ ared
Ġcrow ding
ĠDiagn ostics
Ġl as
Ġsec rete
el ess
eng ers
ĠIg A
vis ible
ĠBelg ium
f riendly
Ġdep artment
Ġmulti plicity
ĠD eg
Ġun rel
âİ¢ âİ¢
Ã º
od ge
ure a
Ġreg rowth
Ġsol vation
init ial
h orizon
ĠS ard
Ġmicro cos
ĠPV C
Ġdispar ate
Ġbl end
Ġd ivalent
Ġmin es
Ġpert inent
Ġrestrict ive
Ġresemb led
in ium
ĠM useum
cl osed
Ġdef enses
Ġnortheast ward
Ġiter atively
Ġsoc ially
âİ¥ âİ¥
Ġa rom
ĠCF S
Ġalve olar
Ġins ulating
ĠNr f
T NF
ĠE CL
ĠD icer
Ġarter y
Ġas pir
sh aded
pre c
Ġpossess ed
Ġregist ration
k k
Ġin bred
ĠInd igenous
Ġsett led
ĠTor onto
ĠBacter ia
Ġord ination
Ġrev olution
flo or
ĠN GO
ĠH un
bi ology
Ġv est
ĠSe oul
Ġcarbon ates
Ġsymb iosis
Ġpeculi ar
er ror
str Ã¶m
Ġabnorm ally
Ġg ully
Ġsex es
ĠTM EM
R ay
m ma
n itrogen
Ġvari ational
Ġcontrol l
30 2
Ġframes h
ĠLip ofectamine
IK V
Ġs accade
ĠR N
sequ ence
for ce
Ġsegreg ated
Ġrad ars
Ġcore g
ĠEle vated
s ampling
Ġad duct
Ġbl unt
iph atic
P NA
Ġg amb
ĠMD R
ĠMo isture
ĠGraph Pad
ĠB PA
ĠG ong
CD C
ĠÃ ¾
Ġgy psum
ĠA SL
ĠD AT
in ators
Ġinf estation
Ġoscill ating
ĠA RP
MM s
Ġdur ability
ĠS AB
Ġex agger
ĠL ib
Pear son
prom oting
un n
Ġremn ant
f illing
Ġb er
Ġre int
Ġfoss ils
ĠOr th
im oto
ĠW FD
g auge
ĠPM M
Ġcontradict ory
te xt
ung al
Ġdeform ations
ĠM dm
Ġprovid ers
ĠOx ford
Ġa rab
ĠG all
oler ance
Ġsuff ers
S n
j oy
ĠGreg ory
U SD
â ĸ
Ġc ater
cl usive
Ġhydro xy
acc umulation
Ġdark ness
Ġp ause
ĠM BC
ĠL AT
Ġpay ments
al id
Ġcrown s
Ġp od
Ġthrough fall
Ġdigit ized
Ġemb ank
ĠS z
Ġ19 59
âĪĴ/âĪĴ )
Ġhat ching
2 13
st yrene
Ġelectron ics
Ġgen otyped
19 3
ĠSim ple
amp ered
A f
erent ial
ĠTrans cript
Ġtet ramers
U U
s pl
ĠP PI
Ġmod ulations
hand ed
25 6
F u
p ixel
Ġout lets
Ġsalt water
sub strate
Ġhydrod ynamics
Ġnitro cellulose
Ġseek s
ĠF unction
Ġtem pt
âĢ² (
SM A
Ġevident ly
Ġmount ing
ĠP ier
th in
Ġhydro chlor
Ġcycl ase
Ġampl ifying
ophil us
f arm
Ġtra il
Ġnon stationary
urt osis
Ġalbed os
ĠH CN
Ġqu eries
emb ed
D ep
E ast
ĠK c
ĠJ on
ior gi
Ġcircuit ry
ĠT BS
ĠL ack
Ġclass ifying
Ġsw ath
Ġdispar ities
Ġo zones
Ġnormal ize
Ġsubsystem s
L in
ĠT au
Ġjust ify
Ġf ring
ĠCell ular
Ġapo E
ĠDan ube
r hen
ĠAdri atic
ici ency
ĠO BS
ĠW y
ob a
Ġcertain ty
ĠFam ily
ĠY ale
Ġpot able
ĠUncertain ty
Ë ļ
Ġlow s
Ġg ames
ĠW Q
ĠCon clusions
ĠIm ager
velop ing
Ġmill isec
Ġmanag er
ĠPur kinje
Ġcave at
ĠApplic ations
im n
ĠM PC
ten e
ĠS AL
Ġocc ult
ĠQ ian
Ġvis ited
ĠDirect or
R II
ĠHe bei
ĠGH RH
ĠFac ulty
Ġprofound ly
C at
Ġdeline ation
3 15
Ġs orghum
Ġanaly tically
app ro
anth us
ĠL ep
6 50
Ġgangl ion
t n
îĥµîĥ· îĥ¶îĥ¶îĥ¶îĥ¶
r B
it ers
Ġh ampered
ĠW en
22 9
F N
ĠD l
ĠL SS
Ġbi le
PS Cs
ĠC retaceous
Ġpart y
ĠEc ology
ag u
Ġsac r
Ġspars ely
W i
Ġf ul
ĠSch u
Ġbrack ish
ĠMari e
Ġtoler ate
Ġgangl ia
igg ins
ĠHen ry
Ġtra ils
its ch
ĠMic robial
; (
Ġ12 7
ĠProject s
pp m
ob enz
Ġhydro electric
Ġas l
ĠP ut
Ġwater cour
Ġbioc limatic
ĠAMS R
f an
otrans fer
Ġequival ence
opro te
SPL IT
ĠH Q
Ġgeneral ize
Ġprog ressed
Ġhapl oid
ovirus es
ri age
ick ed
pro v
Ã© n
ĠPet ri
oc o
Ġalt itudinal
Ġperme ation
Ġanion ic
E Cs
k BT
et ting
Ġcry ptic
Ġjour nals
ĠF H
Ġcomp atibility
Ġcentrifug al
D u
ĠPar ameters
ĠD EA
19 76
Ġgra pe
medi um
M ER
ĠC BF
ĠN AC
Ġout group
arch ae
Ar ctic
u ably
ĠR GS
ĠO CT
SV M
Ġillum inated
Ġsc rap
Ġnear shore
Ġfruit ful
iver se
Ġfour fold
ĠSc reen
Ġsil enced
ĠO lympus
Ġn onse
Ġpre clinical
ĠSpect ral
Mo vie
y tic
im urium
ik i
Ġh osp
ĠM OS
Ġadv oc
Ġaspart ate
n n
ĠP As
19 50
Ġf ruct
er um
it um
Ġcheck s
Ġb lu
Ġhyd rated
ĠTec n
d ip
h ous
ĠBiol abs
Ġtrade off
ĠCG CMs
atic a
Ġtr is
Ġ29 8
T ime
Ġf iss
n ational
cess ion
23 9
ke eping
ĠSO X
Ġimp osing
Ġpool ing
methyl ated
Ġemot ions
prot ected
Ġund oubtedly
Ġhyper b
Ġmillenn ium
N MR
Ġprof its
ĠÎĶ T
Ġflask s
Ġd c
Sah aran
w ang
ĠP LA
ĠR oth
Ġphot oble
ĠAd am
Ġparench yma
it ol
Ġcorrel ating
Ġretin as
sh are
bl asts
Ġcitiz en
Ġpropos als
oc ratic
Ġepit helia
Ġmand atory
Ġfluorescent ly
/ [
Ġelev ational
Ġtransl ocated
ĠN Z
ĠZ eng
abil ization
Ġca ught
ym e
Ġarr ived
ĠTGF Î²
Ġdorm ant
arc ane
egrad ation
ĠNLR P
reg ulating
Ġdisproportion ately
ĠHud son
Ġh n
ĠEc u
Ġmim icking
Ġdiscrimin ant
Ġhydro climate
3 40
Ġle an
urb ance
15 00
Ġcis platin
ĠHAL OE
ĠK Ã¶
Ġhyp oc
Ġtransform ants
ĠNe ural
ĠÎ´ D
kin in
UN EL
30 9
c ans
Ġf lying
ĠN if
Ġcons picuous
30 8
Ġisomer ization
ĠG y
Ġver ifying
Ġdesc end
Ġnons ynonymous
Ġcoimmunopre cipitation
ur ia
ic us
Ġsol itary
Ġroot ed
Ġv ials
ĠSI V
IF N
s ynt
ĠL idar
SO A
conf ined
Ġunw inding
ov ic
Ġcomplex ities
Ġent ity
or ange
ĠR x
ĠU DP
25 1
Ġmuc us
Ġconcer ted
A AC
os ely
cl ip
Ġday light
Ġspin up
Ġdop ing
Ġdict ated
Ġsnaps hots
ch art
ĠR CA
Ġult rasound
ĠGAB AA
Ġfrog s
Sut cliffe
Ġcon ject
Ġlow lands
Ġge ography
Ġphot ochemistry
ifer ous
rele ase
Ġworksh op
Ġun necess
ĠH ob
T renberth
Ġnew born
CL M
ĠMin ister
Ġtunnel ing
Ġpress ur
ĠS Ã£o
ĠG AG
ov ies
Ġrot ary
H ub
im olar
AA V
= [
G ST
Ġm oral
ĠSD s
Ġeth ical
ĠEng ine
ĠC ondition
ass ay
Ġ6 000
Ġbas ement
Ġ4 20
Ġstom ach
ra wn
Ġch i
ĠK aw
Ġamen able
ĠB an
Ġphot ometer
Ġselect s
AB A
ĠSA XS
Ġaden ocarcin
B ER
ĠU M
eld in
Ġtown s
Ġass ert
Ġent rained
Ġaut ophosph
nic us
Ġpolys accharides
M at
T reg
Ġreg ister
ĠPr imers
Ġhypothalam ic
g ood
ĠE PI
Ġ ],
Ġl umped
ev olution
hol m
ĠS MA
ĠKr ish
t w
Ġresist ances
ĠESM s
K e
ĠD MI
all en
wo ods
Ġkey words
ĠF GFR
ĠW AT
Ġent ails
ĠCro at
Ġfore brain
Ġregener ating
ĠStrateg y
ĠI OP
Ġsp otted
cent er
Ġsk id
ĠMut ation
Ġinject ing
Ġconvin cing
Ġprosp ective
ot ically
ĠX P
Ġtr ivial
ĠVari ability
E nt
ĠA ST
ĠN TA
Ġcerv ical
Ġtherm ohaline
ĠDe letion
det erm
work s
Ġre ared
ad oc
ĠCer tain
H b
ed er
or ch
Ġrecalcit rant
ĠSt able
rog l
ĠFts Z
t man
av iruses
ĠY RB
nam ely
Ġterrit orial
ĠW EC
Ġref olding
ol utely
man aged
Ġmess enger
Ġra cial
Ġlic hen
ĠP ac
ens ation
Ġun corrected
ĠAr tic
Ġcalib rations
] [
Ġleuk ocyte
Ġnot es
Ġinf ar
Ġdere g
Ġun altered
ox P
ĠPro ducts
Ġpack et
ery th
Ġformal in
fflfflfflffl fflfflfflffl
z y
ov erexp
ĠCon vention
ĠIR ES
ĠZn O
ĠM ars
ĠP icea
ĠM ixed
ĠD uke
ens ed
Ġcaus ative
Ġtremend ous
mod els
Ġstack s
represent ation
Ġantic ancer
V R
ĠT SA
âĪĴ/âĪĴ ,
Ġprogn osis
Ġlitt oral
ĠP and
ĠAn alog
LL J
Ġelabor ated
+ âĪĤ
ent ric
ĠA CS
E xp
w ere
Ġimp ing
Ġimm ort
Ġweakness es
edd ell
Ġres ampled
Ġunder lies
27 6
56 2
Ġhar bors
h ill
er ad
ĠF AC
Ġapp le
ĠF ischer
ĠB ird
âĢ² ),
Ġpossess ing
Ġscript s
Ġdeb ated
Ġoak s
Mon te
Ġstress or
Ġlocal izes
ĠB and
ĠG SM
N ot
ĠI TC
Ġdrain s
R o
Ġfield work
Ġimmun ological
ĠH f
ĠP rel
fam ilies
Ġcompan ion
Ġatt itude
yc ycline
uk la
) [
Ġg lu
ĠH et
39 0
e ach
Ġ20 25
ĠEm pirical
B er
ĠJ ing
Ġfe aturing
an ne
Ġincl usive
Ġspons ored
Ġf ight
ĠCh am
bi as
Ġmult itude
ĠHO NO
le a
Ġcoe volution
Cl imate
ĠPR J
3 01
ĠE ff
ĠL ink
ĠGTP ases
M or
ĠEmb ry
M AT
Ġdec oding
ĠBa ikal
Ġinterrupt ed
Ġaccum ulations
ĠIs s
H a
Ġtra iling
ĠSynt hesis
Ġst ump
ĠW right
ĠHend on
Ġrehabil itation
at ization
et ermined
ature s
Ġ19 49
Ġpale oclimate
Ġveget ables
pl asts
Ġpres crib
al ase
im an
ĠGE O
ĠT un
Ġ2 22
Ġas ide
Ġgl au
ĠET o
Ġqual ities
increas ing
ĠTheore tical
ĠCT LA
b ands
ĠT NA
Ġro set
Ġhead water
agen esis
am ate
Ġmyocard ial
ex ual
yl ak
Ġlight s
Ġattempt ing
Ġseroton in
M al
Ġacc lim
P y
Ġsk ull
ĠPl ot
Ġkan amycin
Ġ19 55
Ġhigh lands
J ohn
Ġhist ology
Ġoff ic
Ġmer ge
Ġbrom ine
nit ros
Ġland mass
l ane
p k
ĠM ale
om inant
Ġdip h
contin ental
f rozen
per sed
Ġdeterm inations
Ġland mark
ĠX iao
T u
Ġnan ostruct
we b
Ġcheck ing
Ġfollic le
ÎĶ C
ĠM ath
Ġexp osing
Ġins erts
Ġback cross
Ġamphib ian
Ġdegener ate
Ġdevast ating
Ġparsimon ious
pp en
ĠDo es
Ġpneum on
F ar
ĠR p
Ġinhom ogeneities
ĠM ats
Ġantis erum
ĠVi enna
Ġju xt
on en
ac cept
[...]
